FF3E00D7FFDAFE5801E5FFE8FFB1FDFA00E6FFA7FFEA0042FC64FFEBFD74
FF0D0125000DFE6F019DFFD9000BFE3601160021FFD90045FC8AFFDFFD76
FF3400FCFFB8FE19012C001A0036FEB400D70010001800C5FD18FFAEFCF3
FF35FFF2FFB8FC440014FFBAFFC400D90113005401C50180FC450051FB5C
0076FDF5FFEBF9BCFE76FFFA0015025600C800CB035C01D4FBC6001EFA3D
01E4FB77FFC1F8B5FC9DFFD8001502DD01B1FFA504110152FCC8FFF8FA95
044FFABCFFF2FA96FC3AFFF1FFC9012C0361FF8502BC00A20072FFB8FDCE
0245FE2F001CFEA0FC74002DFFDF00E70171FF13FF3E000B039E002800B4
00C0019BFFFB0009F8920044FFCD000BFD67FECCF99CFFBF07A4FFB70474
FE9B0625FFB10237F94B004F0032FE69FC1FFDD8F848006405950000060F
FD1F01CA00460002FC4100330022FDC2FEC9FD9AFC86003301B6FFB901AE
FE00FAE6FFD7FDCE0002FFC4001EFFE00082FEED0255004DFD32FFC4FC7D
0200F962FFAFFCA2009B0002FFE9009C010A005304470133FC15FFBCFAD0
02C2FBC9FFF600D3015C0011FFF80043010E0079054101C3FC92FFCAFE0E
00A8FD690039014F01C0FFECFFFCFFEA011B006B04460250FD59FFCDFF67
FF81FE27004700E401FF0028FFCDFF8100E7FFD402940184FCA1FFC9FF24
FE730001FFC3FF7C02ABFFF7000EFE840156FF7F00E00144FBF9FFFFFDC8
FEEE0100FFB9FDD20172FFDDFFCAFEC2016FFFDA001D0092FCE6FFE5FCE2
FD3401A60036FBE9FFCC0019000F007301030026FF54014BFEE50051FC47
FD9A009B0038FB49FCDDFFD8004F01A5010E00D9FF740235022BFFC1FCEE
0064FDEB0043F87AFAF9FFCAFFB9024D017300F1019D024300CBFFBBFCCD
050AF9F8002FF6AFF6F8FFECFFF00289035CFFF802D902B60146FFDCFD35
0767FA900037F91DF8980076FFE301F704DFFFE50250033D022DFFE5FFAC
03CBFBD00034F9B6F4E1003B000804B20163FFA8FFFE0317045F00080009
04C0FC86FFB4F82FF2E900690014010F0099FE27003D0393038C0023004A
0561FBE6FFCAFBE1F4BF00970004FEECFF21FDAC02F8033302D0003D0185
05D2F817FFB5FC5DF549FFF500000075008EFCAE02B702A105DB003D0055
0330FA59FFAEFEDFFE38000A0036015EFFA5FE8A0288035CFFD0FFED00C5
061CF996004EFEF50192FFF4003E00E3FEBB0077053E0354FB7D0001FD91
06FEFA85005100BD017AFFD8FFD2009100B3008007CA0344FB9CFFAFFE54
0384FAEF0009020500D5006C0029000201EA004605A6025CFE010036008D
017DFAB0FFC601C901770009FFFDFF5101F5FFE404CE0329FD1FFFCDFF97
FFC5FF59FFC4FF9E01D7000CFFCDFED70137000D024101C9FBE5FFB0FDD7
FE3E016D0043FD6001070002FFBEFEE50115FFB4FF3200B5FDDE0023FCB3
FD0C019E0044FCB2FE430004FFE8FFD4016B004CFDDC014C02A7FFF0FD45
FFDA00B8000DFE0DFBA4004FFFB800A70135001CFE8902050478FFBB00B0
02DEFFE80024FD13FBC2001F00170125003200FCFFB603070204FFD100FA
03DEFE8D0010FB78FB1D001CFFD00229FFC401010109043BFF5DFFBAFEBE
048BFDB60022FA26F9E2002A001103B9014400110237033300020003FD85
013FFB64004EF851F883008AFFDF02B0052CFEA702DB01C001A60019FB81
0074FB98FFF5F9B2FBB3FFE2FFD1017C01DC005C0120FFA7021D0007FBCC
015FF961FFBA002B0037FFAA0013008EFCFD00B302F3011FFFC4000FFCCD
035AF803FFBA012CFCDEFFDDFFD602ECFCB4009E0337022E025BFFB2FEF3
0389FD690019002BFEB300170041025FFC2500D9FEFB030D009CFFE1FF20
065CFF43FFB7FBD2FF96FF9AFFD6FFAEFD5C00E1FDDE0258FFFFFFBBFC7D
0655FCE9FFBFFD2DFF760010FFB70109FE5E0170013201F8FFF9FFF3FD03
0284FAA6003EFFEF00070066FFD3FF0E016700B400AFFFF5007AFFF5FFC0
005CF99C0047FF9D00ADFFFCFFEEFF7A029FFFCE020D0193FF08FFB9FE73
FF59FDF6FFC0FF4E01C3FFDDFFF0FE94019A0018014E0208FC9E0037FDCC
FE1700EFFFD2FDEF006E0044FFEEFF1301120005FED60080FF79FFC4FD6C
FDB2FFC50050003BFD15005E000000ACFFDB007DFDADFFDA0490000C00A2
00C4FD0500440312FC800098FFD801DEFF850024005D028C02BE003F0443
02C3FEC7001502C8FDF4002D0012025BFD4CFFF000B0042AFF10004402E2
000BFD03FFFB0265FDE00047FFF70551FDA5FFE90087020800F5FFD90099
0186F7FC002FFF48F9C6005B003707B70025FF4F04CF000301F6FFD2FE75
FC76F5B0FFFDFBABFD480099001103860321FF7E0481FE5D0168FFD2F902
010CFA33004DFC970187FFC90024FF6901DF01580197FBED020FFFD6FB61
0071FFCF002BFCC100C7FFCDFFEFFDBB00760262FAE1FEF00417001AFB6B
028401CC0016FD09FC91FFAE004FFFE5FD060282FC36014A0259FFD4FCDA
058402E3FFC0FF1DFEA6FF98003FFE90FD1A0222F8D6007404110014004C
02D801510024FD18FCC0FF79003700EFFBC40112F9C3FF6D0605FFBAFD01
03BC008EFFC1FEF3FE82FFB6FFE7029FFA650182FE0FFF2502F0FFF1FD2C
00A1000EFFC60096008DFF8C003FFF80FEBE0073FDBAFD1E01F40016FFAC
FF60FE1C003BFE750151FFE1001FFF75007C0078FED9FD60FFA9FFEFFDA4
FF0AFF58000CFEE401CF001AFFE3FEF50118FFCCFFA7000DFDFE002AFD23
FEA0FFDA000AFF7A001DFFE2FFDCFF7700170005FFBA0049FF28FFCAFED6
FF1CFDA100200343FE160012FFB901A1FE8B00A2003B0056022A003401D7
0269FD6F00380265FED8FFDE002C0213FDDD010402BD0159FE0F000A00C8
0387FF03004902EC003C0076001B036EFB1700EE014D026FFBA000040128
0084FD69FFB8052A007FFFE80038071CF929006C008700880020004D009D
00C1F735FFB40A16001900B7FFB30906F877FFAB075AFEE4FDEF004803F8
FDC1F9F5FFBA06CA059500AEFFCB0397FAD1FEAB0438FEF8FE5900450076
01CD0709004E03D908D1FFD00030FAF0FD5800D6FC3BFF9D002200200268
03AB0A130005FF9B037DFFA3FFCFFA26FD740257F70B019A02AD0025FFE8
05570667FFEBFD08FD60FFAAFFB6FD6DFC040206FA3E025601D3FFFDFF47
074F06420011FDF5FF0AFF53002DFD21FB460289F76FFECC03C0FFFBFEFC
02A9038CFFC1FE7FFE52FF7CFFB6011FFA4D034CF8F6FD2D057AFFEDFCF1
043C01FBFFED0154FEFEFF92000C0151FAD001C9FCB9FD32049C00060017
01360187FFDE00ED00CAFF7D004EFFCCFE2900A5FE2FFC0D02DAFFAE003E
00720062001CFEF0011EFFDCFFCDFF7C00420135FEA3FB1100EB004AFE71
FF0700A3FFC7FEAE019BFFA0FFFAFEE10070002DFF22FEEEFE42FFB5FD60
FFB4FE94004D00240072FFEB0005FF960072FFEB00B1005FFE420011FF4B
0153FC38FFB40396FFD50059FFB701B0FF3400A9022BFFA2000F002301BC
03D4FD79FFBE022400F40034FFD8033BFBFE01B504800068FC750027FEE5
0413FE93FFC9048703830012003D03DAF9E601920358FFD1FB44FFE3013E
FFDAFCA800500910023600650046069EF6E3013C0313009FFB9AFFF30473
FFD6FB54FFD80C8E02110083FFB30618F6EEFDED071D0292F9F2FFFB0777
01710390001E074F042400C70022FE10FBDFFCFC02750477FB66FFCC0571
04BD0B72001D02CD0562FFEF003FF5DDFF7DFDCCFCCF0630FBD8FFF703BF
05D30664FFECFDEF0001001BFFEAFA2CFE52FF6EFC2E065FFE41FFB1FF54
0A7900BEFFDEFDE6FD3F002A001DFEA1FDA2FF0CFFF00323FFEDFFF8010C
080100B90028FDAD0104FFFC000600C2FA8F00D4FF17FFF0FE3BFFB9FCC7
03AF01A6FFBBFDDB01E4FFD4002EFF82FB7B0225FE21FD6D0130FFD5FBC1
0550033EFFB1FEF30041FF8F0035FE19FF070139FE91FC9904B0FFB1009C
02D500DBFFF0FFAB00D0FF6C0023FF73FF9800EB001AFB510336FFB5001D
0093FFA9FFE300440105FFA3FFF2FF4700220101FF91FAF90243000EFFE4
FF95FFF8FFB9FEF0019DFFF1FFDCFF0F00B5003AFF2FFE1EFEC5FFBEFE02
00C8FD4BFFBC008F007B0064FFC1FF5301D3002601430018FF44FFD9FF86
02A1FBD6000003A900C90057FFB20185002E00FD033BFF24FFD800480240
0339FB4E004A05AB029A002000420371FD3701BE064B00A5FE1E001902AE
02E6FAFE00200829051D006B003F02E3FAD601BB084D020EFB15004C0421
00D5FEA0FFCB07D70509FFF9FFDE02C0F9EB021E03460138FAC60028064C
05B2FE65FFE806A60120004CFFF801BEFB88FEF9050702D0FC07FFCA08AC
04F602D5001D0447FE100091FFB5FDBCFEB1FD65039602F2FCDA004806A2
04CC0824FFBA01F80174FFF0FFDEF7040030FDCAFE95057CFD20003C03E8
049D081BFFCE00AE0341FFD6FFF6F9A7FF8AFEBFFEB80694FC2A003302E9
07C104E8FFB9FF960265000E001800E7FD0EFF35013A0489FCB9FFB50182
0515027DFFFBFCE80444FFDFFFF800EDFDE6FF5401920140FC48FFEBFBCA
042700340007FC7E0389FFC4001FFEF50014005204A3FD68FD82FFCBFBF1
037A0415003BFED4020BFFDDFFB8FDB1009C00D400D7FD2F0248FFD10075
031401C0FFB3FFCF0139FF810046FEC900EE010EFFE3FB0F0316001B00D3
0181FFCEFFC400DA00D6FFBF004BFFAE00FE00DEFFE6FAEF01A40040004C
005D0011FFDBFFC60192FFAFFFFCFEF401410048FFEFFE6DFEC00023FE8D
01AFFD3DFFF100B400A8FFF2000DFF4C016FFFB201FEFFE6FEE9FFCC0021
03BFFB58FFDF046201A5005D002B0098012700A40446FE2400AF00360313
033EFAF6005007F503BB0046001901FDFF5900CE0718003FFEA600160679
02A1FBC8FFE8097F057100A3001E0104FDCF005C0871026AFAF400400700
0438FA9D0042068A05170041FFED01CBFD0900CA05A900B1FCF8FFFE0740
052B01A60050020201FB0017FFDB0143FD1B0103025700B8FEB1FFF70677
013C03B1FFDD01E2FEC9002F001C016AFE6DFF1A02FE0349FE5FFFE00494
019C079AFFC7004103C200B10050FA13003EFE8A03B006C5F930FFB001C7
032C0953003902030371FFD9FFC1FC3CFFD1FEA502C20693FB1EFFCC03B6
011D0916FFB0FF55006EFFD3FFC70203FC5D0029FFE802F1FE7BFFF80135
019105E9FFC2FC340266FFCC0003FFE4FF0BFFDA02BD0041FB930026FB5A
05810004FFCEFE59022EFF9B0002FFEEFFB500190670FD1CFC0EFFD8FEC5
044F00F1FFB1FF3E0098FFF20003FE9001190011032BFCE5010F002400DA
029D01160016FFE0007FFFDAFFB7FE700281FFDD005EFC1A0322FFBB00E6
026CFF73FFB000EF00DA00140002FEF401FE008E0023FC3D0112FFF100BC
0082FF35FFDAFFAD0193FFF8FFCCFEFE017F004A0053FE31FE6C0013FEDE
0241FDA60009013F014700460015FF7E00E8000501C0FEBCFEF7FFCD0023
03CEFE08001C03BD02290018FFC600D0002501340369FC45006BFFED02E3
027D0104FFC2060E050AFF9BFFF40053FE3801C503D7FDB1FD3F00180507
0210029E000604C00487001B0042FFE4FDC901690478FF4CFA73FFCF04B7
0119FE6D00220251024B0043FFD80198FE8900750495FF10FD98FFDA03FF
006B0122FFB500FA000E0019004002D1FECB006C04550038FDA900060455
FBED06B3FFF9FE72010A008A001D006C01C6007AFEB002C6007300120206
00B80ABAFFEAFB3E03DB00320037FA5703D5FFCEFDD505F8FD140030FF24
00D706A0FFB9028B00F30048FFE0FEDEFFADFE0C01DD0583FDF1002D02BB
00D50793000D01C2002C0002004CFF80FECDFE7B006C01FDFF26003C0258
01740731FFBAFD3D021DFF4F0014FC8800F5FFB1FFE8FEB9FD0E0030FDFA
05840037001EFF8B00CAFFED0001FD9C01F7FF72027BFBC8FEEF00460198
04EC006A0000FF9EFFA6FF5A002EFDE80112FFE20106FB71017200090213
022B00ED003B00D0003CFFA40021FE9C0142FEF9000EFC19027A00500294
0308FFB8FFFC010D0091001FFFD1FDE8022EFF44001BFCFE014900430170
0134FEC60039FF6F017BFFFD0005FEBC01640009000CFE42FE77FFE8FED1
01CAFE0AFFE800DD015FFFF8FFC2FF24012D0033012AFE37FF1CFFF6FFDC
02C9FF61FFFC02A501E5FFFBFFE5004000430149032AFBF700A9001501F3
0025035B0010028802EFFF74FFFF010CFD3F02F8FEFCFAF30035003902FC
FFB70386001FFF9701DFFFB8FFEA007BFC560370FF0AFD1AFD75003001E7
FCD30170FFE0FEB500E2FFE8FFDF02F4FC83028500A8FE09FD91FFD10035
FBD501F0FFB60185009000570017057EFAED018B0274FE10FE55000E01F3
FCB0068B0020FE8204B6FFFCFFB00185FE88016D019701A8FB9A001BFDF6
FE5B0685002AFB2204AE0002003C0039FF7900E502070428F976FFB0FA52
FD3400BA003E00B7FFBC0042001604CBFBD5019D025F0368FDF50022FDB8
00E301F9001102E2FEB0FF5B00150115FD76FEFA01970083FE6DFFB60162
04E202B1003002E500E6FF3F0001FBA2FF2BFE5601F8FCF8FF2D0036038F
05A0FEEDFFCB02850056FFAAFFDEFA2C0361FD3C0270FC55004200510422
0375FEFCFFE6015CFFFAFF970012FD8E01D9FF3200CBFB8A015C003F029F
016700CAFFEF02010123FFEAFFCFFEC10047FF140153FD84FF58FFDE02A4
01E20031FFE5017E0078002A001FFDE20178FF49FFCBFDEE00A9000001C4
00AEFF50FFE3FFCE01A2004BFFE8FE3D00FAFF690021FEE4FEB70033FF7F
009BFE730017001701450002FFBFFF83011C00950097FE18FF27FFB7FF57
00B4FDDD0036029D00D9FFBB0039006C006A014C0291FC4800E30005013A
FD9F020F0004020B0072FF8E004F0158FDE20298FDF8FBF40197FFBA02A3
FD8802B70025FEC7FF95FF94004000F3FC08030AFC0DFBA9FEF70015004E
FA3B02F4000F001EFF770001FFD20320F9D0036BFD39FCA8FE35FFE5FF4C
F93903E40021038602590006002B054DF71A030C0097FD1AFD6200310030
FACE05850010FE2B060AFFC9001D021CFB25027101670014FA980034FAB5
FAEF05D9FFC4FF600669FFEF0033019EFD8E019003AE020FF8ABFFE7FBD5
FE4BFF53003B03B501790013FFB803D9F9A201DD059900D1FAFDFFBE001F
033CFF0DFFC90563FF3DFF7A000C0123FC61FF4F0356FDE0FEA6FFB203F0
049701C8FFDB04E1FEB4FF68FFB5FBCB0197FDA200AEFCA904AE001805C4
0259FEA80005059CFE0CFFD9FFE3FAA40342FC1C00EFFD8104E60006068C
0163FF37001D0397FE4BFF91001FFD540249FE2900BBFDDC016B002E041E
0020008700460119FE83FFCA0021FDF301C5FFE300A3FEEDFF3EFFBB011E
FFE80010FFC6FF86FE8BFFF5002DFE530178FF7AFE7BFE86015CFFBCFFE7
FF8DFFD1FFB6FEFD007BFFE00034FE77012DFFCFFF89FF6EFEF90010FF09
FEDAFE250012FFC401600000FFF1FF32013B004DFFD5FED8FF60FFD2FE92
FD81FE4D000C003EFFF9FFB0003B00A10078005F000BFD3201CC0021006A
FA9902050025003CFED2FF83002301D7FF2E01A9FCD4FE62033FFFCD010B
FB5AFF88FFCCFEF1FD2C002CFFFD0246FE7301BFFAACFB7805A8FFCB00ED
F6760007002E005EFE030021002A045AFB7002AEFA40FC650532FFE0FF7F
F67F0171FFB8033600D6003AFFEB0533F9AC02B2FD1AFCB002B2FFF4FFD7
FA9701DEFFC3FD13022A002BFFCB01CCFE8901950169013DFDDA000CFABB
F9500323FFCBFE0203A600530020FE8C021E00F60183036DFD3D004AFB1B
FD2EFDD4FFBC00C6FF62FF8DFFDD019FFF11012A0093FF9E0216FFD8FDCF
0150FE67FFB502BAFD6EFFADFFC602DFFEACFF5800B1FD2103870035017B
0309FF41001801EAFC8AFFFEFFCFFD9A0367FD30FF07FC740626FFDA0419
FF32FFE2004E01D2FBDA003B002FFCFA03B8FCADFE4DFE1B060D002704A0
FFA201EEFFF200F5FD15FFD4FFE5FCBB0242FDBEFE7BFF8202BB003D02BE
FE6701E8FFC6FE82FCBAFFC1FFB4FE7A026BFF28FD32FFB10295FFBBFF9F
FDD900BCFFDEFE79FD68FFD5FFDBFE6801F8FF1CFD22FEE9024D0016FF49
FF0900A4FFD6FF0E000A00350040FDDA0129FF16FEC0FFB3FED7001AFEAB
FE88FD370023FF7800B2003A0019FF8701E9FFD5003FFFB8FF190007FE4B
FCA6FCA90013FE75FF29005EFFAE008301C10035FE12FF4D0230FFF7FFD5
FAF9FF5D00120067FEEA0014003801AA01890038FEDA000703040006019B
FB88FCFF004FFE92FC930058FFBC02A90184FF72FD9FFE48070300420196
F90FFC09FFDB0027FBBC002300150606FE3600DFFC8FFE160858FFB40089
F607FBEA001400D8FCAE005F0041065FFED90101FD88FD4F0783FFF4FF5F
F8F8FDD1FFEEFEDEFE93009AFFC601CA01DD007200AE0027026B000DFD82
F8B900AC0026FC2F007F007CFFB1FC3406D2FFC6FF3C03EA02BE0013FC01
FCB20088FFE9FE0B008500190050FF6E02CFFEE9FE4A000D0239FFFEFB99
FA9200D2003501A901D900310024031600A7FEAEFE40FD2B01BEFFC8FDF0
FE6901B9FFDB0128FF890038FFE3FE3201EFFD8EFCE1FDAA0216003501A2
FCC40272001F0041FEC900590041FE7A013FFDA6FE2A004E029D00310203
FD4B0449FFD00000FEBDFFABFFE3FD73009BFEAFFCFB012902E8004C00BC
FCEF0321002AFE76FE9BFFC7FFF1FEA9028FFF16FBE900180366FFCCFE6D
FDF301CB0003FEFBFF91002AFFC8FDFD01C1FEE4FD63FFDC0164FFB0FF5C
FEC2014AFFD4FEF1014DFFAFFFCCFDB30129FF93FF66000CFE38003DFEB2
FED5FDC00027FF3100E10016FFDEFEE502A000090045014EFE9BFFBAFE26
FCBFFCBBFFC1FF52002100430035004602EDFFE6FF5700FF0097002EFF60
FB62FE7E0022FF5C002F00860022010502DEFFAEFF6D0296FFED003F00BB
FAA0FEC8002BFFBDFF940097001B0248022CFF9EFF3F0220019C003E0188
FC86FB2F0006033EFED400A4FFFC03B7010CFEE8008A02BB0170FFDD0454
FA3EFC0000050139FEA000A4004901D9021BFF8CFE52FF9803B9004C01E5
FA83FEA7002AFF53FECA00D4002FFF5803EBFEEFFEBCFE6F040FFFCFFF81
F9E30343000AFE27016F0034FFD5FCF30419FE37FF7001E4021BFFB7FE38
F9130361FFBAFECF0165003BFFFF019F01DFFDB8FDACFF7B00310007FBE3
F9F4051CFFBA00F50206FFEEFFD101B2015EFE53FAB7FDF102A1FFC8FF2C
FD4A0464004A0158010000100012FF1DFF61FEA7FD93FFFE005AFFD400FE
FC690363FFFE0134011AFFC9002AFEFDFE78FF39FF1101EF0005001E0191
FA6D0551001AFEE6014B001FFFBEFE6B0190FF6BFB1F0171026BFFCFFF2F
FC3503C4FFE9FE04005100560017FD7503B1FF00FC140092029AFFB6FE63
FE900245FFE8FF7C0140002B0031FD4D01F0FEF3FE2E0057FFA7FFD0FF1E
FF630131001EFF0101AA00230029FDEE015EFF81FFCB000EFD280005FDC1
FF3BFEE2FFE0FF4E018C0012FFE8FEE20182FFC5003E00F9FE1D0047FE49
FDE6FF60FFBE0004013200090035FF21031CFFBAFF560239FF950001FF10
FC56003DFFE4FED900A90019000AFF16045E0019FDB6032D005D001B0034
F806015FFFC1FF4AFF9A00330000FF72050D0032FBA1038A0441003C02ED
FB41FDC8004D026FFC5500410035FE63065BFD16FB38028B091500300721
FE28FAC60039024BFBBE005DFFAEFE9C0429FC4EFC9B00590676003B07B4
FF2AFB46001601A2FE310061003BFF4A014EFCE7FF73FE46037200050506
FE16FF25FFB9018000A00027002BFE3300AEFD89FE33FD1802E400100359
FC25FEEEFFF5003DFD120058FFD202A4021DFC9EFB76FC16087CFFC60262
FB30035B0040FD87FFBE0073FFC201E5013CFEC0FBEF00FB0357FFB5FDBA
F75805410012FE0EFF36FFFD004801B3FEE0FFE7FCFE025400D0001BFCC0
F6370448FFEEFDACFF2F004FFFBE016DFFD000E8FA040171047C0005FD2F
F84104B4FFEBFDA6004D000B0031FF230244001DFA19012303CB001DFE1D
FB5D030CFFCAFEEC00FC0052FFBCFE4602ACFF24FCBE006801B8FFD7FE51
FDF1018AFFAEFF5401CA0056000AFE4301CEFF81FE8B003EFEC50050FE09
FE6101150006FECB01E7FFDCFFE5FE8E011DFF8CFFB4002CFD41FFCBFD77
FE7C007F001BFEF901C30008FFCCFE890194FFBCFFBE00ACFD59004EFDA3
FDA0007DFFCFFF7C01B90011FFB7FE890181FFDDFF0D013BFEB0FFD5FDE9
FE1A007A000EFE71010FFFC50020FED602FF0040FE7701B8FF15FFD0FE7E
FE3EFF8BFFF0FF33FF82FFC00031FE42046EFF4DFE3E024C013D003300D7
FE32FC94FFC0018DFDF90006002AFD67050FFD07FE92027B032CFFEB02FF
FF58F8D400050124FD630072FFC7FED604A0FC38006C005C02C9FFFF02D8
FE29F9AD0035018AFF74FFD70017FFC7029BFCA6008FFD170229FFE301DD
FC63FE8E00100119004BFFC4FFEBFEC3008CFDD6FE0EFBE1026A001600E2
FC80FFB1FFEEFF52FF7BFFF9FFE10008001BFDFEFCF6FE4B0264FFD6FF4B
FC0D0353FFB1FF990213FFEB001BFE9DFF2CFF4BFE9100A4FD9DFFBFFD41
FA600489FFD8FEDD017F0049FFD7FFD9FECE0093FD97003FFDC50008FCD4
FA8C02E40011FD900105FFF9FFE0FFCD00830086FCC40054FF6F0011FBE7
FC020256001EFEE7012EFFF6000FFEEE01380033FDD300A8FF41FFECFD9E
FD5F01ECFFE3FEB20121FFD3FFE3FE35019CFF82FEAB00A8FE05002AFDB2
FDF00178FFCFFE3B01B20001FFB8FE55011FFF9DFF44007EFD850024FD3A
FE7C00DC002CFEEE01BB0019FFE9FE9800C4FFEBFFB10088FCCAFFF5FD1B
