00BEFFB9FFEDFD500026000DFFD8FB91002EFC88FD95FEFEFEA7FFF5FD84
009300160006FD8EFFB600030005FBF10043FCC8FDB2FF2AFEB2FFEFFDA4
009000FAFFDCFE12FE03000A001BFCE10020FC57FEE3FFBFFE50FFD7FE11
FF480433FFDCFE71F9CDFF7CFFE2FF9A0020FB8C0178004EFD580028FF03
FE970500FFF5FF57F477FF26000A018AFFC8FB4403CD00DCFD9E000F004E
FFBA0304FFE001F9F3EBFF0A000A01ACFFAEFBA10310013DFEFFFFFC01EA
01EAFFACFFF90357F80BFF5FFFE40001FFE6FE46FE0A01C00422FFDC01B4
00A8FF79000E03CD0000FFDDFFEF00FF003100DCFDB300E50466001402A2
03EF005DFFFD06BB07970027FFE60F0B0057FD6C0315000F05A9FFDB06DD
0312FFA2FFD801F40D5D003400190F930057FD5C0055FE3C0394000003D5
FECCFED20023FB8E04A9FFD3001105D10025FD52FC6AFCDD0048FFDCFFA8
FCDB0072FFEBFD84F7A1FF49000F0009FFD3FD6E0076FEFDFDEFFFE20148
01B5058BFFD70302F581FFB3FFF5FECCFF42FF5403EE030CFEB0FFDE0038
054903A0FFFB02D1FA040000FFFCFD7EFF6FFEFD03F4026BFC26FFE5FCC0
032C01DE001C0091FD65FFFDFFFEFED9FFF5FF3901B900D3FCF9FFE6FD29
0270001E0023FF46FF1F0021FFE6FE4AFFF3FF850031FF71FD57FFE4FBC5
01A4FF82FFE1FE5EFFF800110007FC600048FDB6FEB1FF61FE19FFFFFC1A
003C007AFFDCFDE7FE1EFFEBFFE5FD200058FC11FDF0FFBFFF88FFF2FE2E
FDAA0487001BFCF9F9DAFFD7000700B20022FC43FEB800DAFFC6002800CF
FB130B21001CFCB8F516FF4800270634FFD9FCEAFFA3024E02EFFFE0044B
FD9C0CCE0021FFEFF0CBFEF2FFDC0759FF3AFB7A015B0380042AFFDD03F4
024E054C001706B7EDEBFEE7FFF7074DFEFFFCEF0344047906F8FFEE051E
02A108E5001B0829F0A0FF57FFF105C3FF4300F8002406D90960FFF20200
02E80B7A001A075BF3FFFF8400040DF8FF5FFE9D036D05A908FB00040162
082C09A9FFDA0957F637FFA5000A1325FFACF9E4050703B909010011FDD4
063003D3FFE50729FB57000F0002110FFFD3FBB1043D01FA066E001EFFF1
03750263FFDA047AFB34FF3E00001393FF5CFEC7004703B208EE001E0033
FE0A064BFFD704FCFA82FEE1001B0897FF1003FE023703F1FE34FFF60001
029507C200270927F92CFF73001F00D6FE68019E05BC05D2FCB20000FE1A
08D906660028096BFA97FF95FFE9FE7DFE88FEB4056705BFFB9CFFD7FA40
058E0221000403DDFD910017001400BAFF79FFB602F8023FFD16001BFCE8
04900058FFE300F9FE540001FFFE0007FFBE00D9018B008FFD36FFE6FA87
025900C0FFE2FF06FFAD0016FFE6FD0A0006FE62FF53FFB4FD6EFFD8FBF9
FF9F019C0021FD58FE4E000FFFDFFD660013FCDEFD57002500000011FEAE
FC8604D80022FCCAFBEDFFFFFFF401B1003AFF67FDA801960270FFF8026F
FD8A0830000600A4FCD8FFFAFFDB06EAFFFD0039FE18025003FAFFDD0515
00A5087A00120412FA84000B000A066EFF75FEB90003033801F2FFE801F5
0077061E0008048DF84B0048FFE702ABFF06006B03FF0467FE5EFFDDFFE5
02BC0F7600110644F7D7008200070461FEEFFE00050A087203240001FEA5
03F407F50027027AF621004EFFEF0465FF9AF9A4FE1E04C209C6000CFB8B
FC93FF38FFFA00C7F487FFB1FFE805D9FFD0FF27FF32014B08050003FE4F
FFDD0116FFDD0220F75AFFB900090293FF77000E053A032BFE930007FF38
0323FE9CFFDD0308FC97FF86FFEA09ABFF46FFA307FE042CFEA1FFD902DA
022C0619000C0526FF20FFCB0020043EFED603C604A506C8FB40FFF00240
FD3B064BFFDB07F4026C0036FFEB0465FE95013303C60783FE84FFDD0568
009C02F4FFDF077E00B2FFF3FFDC045EFECBFEBA04CC0487FE0CFFF901E3
0322FDA8001F02AFFF470019FFEA0403FF63FFE1016801430075FFFAFD93
032AFD5D0023FFF5FC46FFE6FFF703D8FFE4FFF3012F0084007FFFDCFAE6
0198FFBAFFE0FE6CFE8BFFF6FFF8FF04001CFE25FEF10022FEB7001BFBF5
FEEE0108FFE9FD79FE3C0039FFF6FE250061FF34FE220009009DFFE2FF21
FC0602140028FE58FF1D005AFFFF03B200010510FEC0008102DE0006028A
FF4703EF002202F80197007FFFEA06ADFFAF0569FFD90193FF95001F010B
FE820248000A047A02050084000804D6FED8054F048A038BFA760022FD35
0012FE4BFFFD02A4FF9800ABFFFB05DFFE5D05A6044A01FFFFADFFECFC86
06D70575001705EEFB3900F2001B07A2FEBE060309D1060100AFFFE9FEAE
FFFDFCCAFFFEFD2EF8D100AA000900F5FF84042303A300E400D8FFE9F6CF
013FFB6A002600F7FC30FFDC0011FDFAFFEEFF22027101F20423FFEBFC5D
00D7FD4A0015FF9DFF9FFFE3FFF600C9004EF478FF78023B0411000D0919
01B7FF6B000B02AA0036FF86002708EFFFB0F74205D503DAFFDAFFEA0FE9
04D7014AFFE00488044F0031001F021CFF2DFEC9FE3505EA02CB000A0B01
FA02039F001202FBFF8100B0001C09A4FEC1020E00CA06850615FFDD08A4
FEE0FF97FFE005F6016E0057FFF30786FF29FFF909140280FDCEFFF8079E
025CFC0CFFE301EF029E0007001F01CFFFEDFF0E0234FF8A00CB000B015F
01AEFBBB001DFF79FD90FFFD000F01860002FE390115FF7F020CFFF7FF31
00DBFE040006FDF0FE95001FFFF1FEAE003DFD47FEB0FF9E00290015FD9D
FE7B005E0005FDB6FE4E0008FFEDFEB800480184FF29FFC1FFCAFFE5FE1D
FCE5FFD40010FFC6FFC80045FFDC03E0FFC7079D023D004DFEBB001AFF25
01000110001C03C3027C005B0016024DFF1E00A504D900C2F9BD0005FFE0
FEC6FF5500240596044300A8000DFF37FE29022B095A0263F6970002FF13
0039FAC0FFDC04DE031B0093001C01B2FDA0058B09B0003AFB6900260041
05FCFCC8FFDA06450641010EFFDA0559FE350C8513A7019EF0D90024FD99
00B2F86FFFDD01BE0CDB00CDFFE60010FF3809740BE1FEA3F2260022F7E8
041D006B002702ED13C800200017F4A9004CFA36FF6100E7FB0B001002A2
02CF04C8000202A90CC9FFF1FFE5FA7F00B2F124FDBB043CFEC900120CE5
03A80578FFF504E90480FF9DFFDA02F5FFFBF4A6020F05E5FF4BFFFE124F
00CA05E0000805150771007F0016FE66FF4FF7CDFFA0068900BAFFFD127A
FEB20012FFE00206FEC000AFFFDB0353FEEEFB1F0340053D03D8FFF60B51
02E8FB4FFFF606D0051B007B0006025BFF54FCF506010165FE610003084A
0313FBEBFFEF02E8042800210027FE6DFFC5FE650216FF0300F3FFD702CE
023FFD6E000E009B002D0010FFE6FDEFFFFFFCDFFFE2FF1403240025019F
010DFEC9FFE3FEB0FF42FFECFFFDFCD8FFF6FCB3FE82FF960084FFDAFEDA
FF7C013D0026FE66FDE600080002FF4600070171FEFC00A0FF690008FCE0
FEB5FDB5FFDA0152FF1E0060FFDB02E4FFC60717036F0033FCCA0011FE09
024EFDF4FFDF048402BB009DFFECFED2FED9FFE7088A0064F54C001300E2
FFD7FE19FFE405AC04AC0092001EFB9BFE2900AE0B5E00FCF4CDFFF10206
FD2DFD3000280380044D00A6002300CAFD5B07210F04FEF3F309FFF9FBF5
0468FD4FFFEC056209E5006AFFDA0361FDD00B3210C300B7EFBAFFFDFABC
FE2F02E3000F033B0FF4006F0011FBC5FF61087A01AC01EAF63AFFE6FC29
FF2F0C8B000E02AC12B2FFC6001FF46700C3FE60F87E03B3FB2FFFFBFEE1
00670C6FFFF603AB0657FFF5FFF3FDC4011AF9B3FE1605C3FC2FFFD80203
09010710FFEF07900486FFDA000D01640010F73B004E044CFF6CFFFC08AB
00C20558001405C8032A00770002FD2CFECCF85C07240708F998FFDC0BBF
030DFE1BFFDD027C013C00350017FCFEFF06F8AC03BC04CA0016FFEA0767
0455FC78FFD8056C0896FFFC001AFC69FFABFA2CFDC3018102C6FFD807F9
03D7FC22FFF803F10387FFD70011FD6EFFBDFC9F01C7FFAE026AFFDA051B
020AFB73FFF101410085FFDFFFF9FDDCFFDFFD910025FF7303D100070296
0151FE34FFDCFEEFFFC30015FFEEFCE8001BFD11FEE5FF700084FFDFFF30
01960057FFDEFFA3FD81003EFFE0FFF6FFFD0041FEEB01020128FFECFCFB
02B3FAC0000002ECFFAC005AFFD90113FF9C04A503E6FFF6FD730024FD97
02DBFA630025045804AF006C0021FFCEFF1303C60785FF61F73D000CFE40
006CFDCF001002CF07B60099001FFC93FE50061F0907FFC4F3680026FB65
FF9BFE98FFE50154089C0047FFEFFB2EFE2C04180744FE04F6A40014F930
05BF0255FFF408D1071A0024FFFCFD60FE5504AF05260364FC7CFFE5FAC2
FD5A079A000E05DB0848FFF8FFDAFC7DFF8404A5FD95039FFEF10024FCBD
FCD80F57FFDD04AC0D6DFF63FFEEFA9600F80374FCC5069EFBEE001EFE72
01820D73FFE7040F079BFF67FFF9F865012AFB6FFAE80415FD0100190100
02670AA0FFDC05AA0824FF53000AFA38FFB3FB9501A10291F912FFDA06D1
01CC04D1FFFD044B031FFF35FFFBF7BDFF17F7B103240571FB06FFF50441
028901D2000300A801E9FF0E000FF6F8FF7DF7E2005A0349FF02FFE5005A
035FFE30001D01D40643FFB0FFDBF9D8FFE7FC17FCD300070319FFE8027F
0454F84DFFD90319039FFFAD0023FCA6FFB2FC79FF51FDE10594000D0407
0336F7D5FFE201C8000EFFD40025FD3FFFDCFDB1FF87FE460407002001C6
01E2FD1DFFEDFF9EFFD3FFF0FFFEFC930032FD1AFF1FFF3F00C50011FF45
0344FE9DFFF8013AFE3FFFFE0006FE6FFFC6FE58006400D6FFECFFE6FE19
05F4F847FFEF04C00069004F0015FF69FF8102430526FFF3FEE2001BFE9D
04CFF8AB0028037D0640004C000C001CFF1D04430726FEA1FA10000BFA57
02EAFB68FFF400A609710075000FFB8DFECF060E062DFE21F5000020F4F3
05B6F9040021037C073D0004FFF7FD24FEA9029A070BFE9DFABAFFFFFA43
009B018600280738029EFF75FFEEFA3FFF09015603260226FE04FFFB0536
FB9B0198FFEE033103C6FEAD000E0086FFA80326FFC2FFF8FEECFFF0FD00
FA4D0FD5FFE300C905BEFE570027F79800A6021CFE2A0332FA31FFD8FEBA
FFE10CF5001C027704B0FE94FFDFF3E900B9FD59FDDAFE80FA62FFE6009B
FE0D0BE6FFD8FFFE01DEFEC7FFE3F9C8FFB5FB7202D4FC9EFA55FFFC0864
008C0574FFE10176FB27FE7D0001F88EFF50F5FE032EFED6000B001304E3
02B5FF3EFFE702FEFD4DFE810000F9DBFF73FC3803FFFFB5FCE1FFEC00CC
03EEFC3FFFD8028BFFDCFF3D0001FBCBFFC0FE55004EFE5902980012FFE3
043BF7C2000B02900159FFA0FFDBFE0C0003FC5DFE5DFD3206C3FFDD01B1
043AF816FFD8026F0005FFF30001FDBBFFF0FCCBFEC5FE9A04D3FFF801A5
0207FCA8FFEDFFDDFFCB0010FFE6FCA7002DFD01FF04FEEC00C70009FF36
03FCFC6F000401F4FF490033000AFD82FFC6FDF10150FFFBFF31FFE6FEA0
0617F843000E050600DB0027FFE3FD58FF7DFFB605FFFF3AFF60FFF60128
0309FA81FFE102620652FFE5FFFAFB3DFF69007006A9FDDDFA71000CFEDA
006EFC540003007D06CAFFEF0021F8C1FF4800DA05F7FDEBF803FFE7FBC6
02C4FA8C001100D90302FF6CFFECFC79FEF900420599FCDEFDD8FFEDFCFF
023FFF78FFDA02D6FDDBFF010020FD12FF2A010B04A8FC99FB7A00030075
FD05046DFFFCFC2E02D5FF0A000EFDDFFFB00176FD6CFD19FF660009FC84
FC0414E0FFF5FEE50966FEB4001BF8C30057FCECFACA038700240018031B
FF7E0F46FFDC00F20544FF42FFEFFDCD0059024EFECFFEABFE790016FE5B
05B809250006007202B2FF3D0026FE9AFFF3FC490114FC48013D001E0449
030400C9FFDD010A0050FEEE000AFA31FFEBF49DFE79FBB904D5001803D1
06C1FAD4000F069900B8FF670000FB5C0006FBEFFE0BFEC901A9002300CA
0399F8E9000002C0FE91FF6D0017FD13FFFDFDF1FF1AFDC2029A0004FF61
0208F97A001D01050108FFA80010FF01FFFEFDDDFD56FC5E03F70028FF99
051AF979FFFE030D00EE0007FFE8FE08FFECFC4CFDE5FF26048800210178
0279FC4B001CFFF0FFCF00130002FCE5002BFD45FEE7FF0C0079FFF4FF18
03D5FC51FFF401DBFF590016FFE1FD18FFF5FD5800F0FFB4FF5EFFFBFED5
0549F93BFFFE046E0093001DFFF2FC8AFFBEFD1E0563FEE1FFC4000A0187
FDD5F9D8000800380321FFD5FFFFFB51FFA8FE6203F3FC41FE36001C02A4
FA10FEC0000FFE19FF32FFA0FFF5FB34FFB7FE2B048EFE4FFCB2001802D4
FACCFDD7FFF0FC48FBB5FF4CFFF0FC79FF69FF04045FFAB7FB5EFFE8014F
FFB7F713FFDBFF30FA24FF98000BFF69FEDE04A60599F95BF9A000070040
FDA503220010F9B00058FF6AFFD8F5D2FF5F00770180FE21F89B000DFED0
F8BA0CF20015F9DCFDCDFEE6001EFC100003FB870237003EF9F2FFD801A1
FC590A25001FFAEFFDF9FF83000B0409FFBFFE6D04CEFBB6FD5A0011012C
057704A90008029902A3FFCF000B00FCFF89004801E2FC6402A0FFDB026C
070BF95E0018076F07F7FFFB0000FBBFFFBAFEA4003EFD550074001B0204
08E0F7B0FFE5078B09790022FFEFFAB30030FE27FD56FDFB01890028FDFD
04A5F5D0FFF3013D03D600170008FCBB003AFED5FE3AFC150301001FFD0C
FF0AFB80FFF7FF0C03F7000AFFE7FD8B002A00E1FD97FAED0047FFEFFE0B
01B8FB9EFFF201F501CE001C000FFE45002DFF93FD62FE93024B00000098
01F1FC4AFFF1FFFA0071003EFFF4FD160007FDA5FE76FF59007D0019FF4C
02FEFBFD000B0071FE5A001DFFDFFDEB000CFDA90049FF76FFD0FFDBFE96
021FF732001B01F0FF15FFFD001DFEE0FFD6FED40392FD11009F000200F3
F8DCF7570002FCEE012EFFFE0027FE16FFD3013B0238FA1AFFBAFFDD024B
F87AFC9B0012FC52FD9B00040020FADD0000FDDC0360FE8DFC53000A052A
F7CEFE770007FBB5FB830019FFE9FCECFFAA01C3052CFA47F87CFFF202FB
F81CF70D0010FC38FBCE00430015FD26FF6708AC06FFF973F58A0018039C
F48C02BF0008F6E80120FFC3000EF5D6FFD003AD022FFEC5F62F001A02FF
F751047DFFE2F797FB84FEF80019F86C003001980485FD5EF789FFF3FD3C
0301FE78001DFCA7FCFBFFEDFFDBFEDAFF6B0094094CFC45FA97FFDFFE0B
04FAFD1FFFE40530074000590006FFFFFF1F03A50371FD37FEBEFFD90374
0417F79AFFED06A609FE002AFFDA01AE002D04C0FADCFB6305D9000C00DD
04A9F955000204CD09ED0045FFF100EB0069020FFB54FD0C03F70003FBC8
049FFA65000E002005830022000FFE9E0046FF23FD79FBF2034A0017FC87
FF58FEFC0023FE67016200180010FE510051FFA7FD26FCC20295FFDDFF2B
FE4DFFAEFFE30070FEDB00130016010F002600EDFBCD00200391FFDE011F
FF68FF18FFDBFEE0FEFD0009001AFED60010FFC4FCC50025012C0008FF41
017AFC8C0009FF06FDBF0013FFF8FF020004FE51FEE4FF76008CFFE9FD89
FDEFF91B0006FD48FC99FFF0001E01BDFFCE00E6009FFCE802EC0010FFB9
F6B7F8D80012F8D0FE490001001102AC00030309FFC1FADC0202FFE601C4
F9EEF9BBFFE6FC3EFBE20065FFFF0143FFE5FF8501BAFFC60250FFE506F4
F474F9530017F8B9F91400680015045EFFF8058F02B2F987FF1FFFF006C3
F2F3F3B8FFDCF78CFE6B0098FFF40209FFE9088900D9F7ADFB41FFFA05B8
F6C1025DFFE1F761FCE8FFF8FFE5FDF0007603B3007DFF5AFBDB0006FEB9
FB0E07E5FFE5F5FBFC45FF6D000FF8660083FF71FF0F0009FE490025FB0A
FF9CFF30FFDEFA05FEB6FFCDFFEEFFB6FFB900D60008FFDC0228FFECFEF1
00D5FBACFFDA042A02F9000AFFE204C3FF87049102D7FED101BD001A038C
FFE0FBF6000C05420449003FFFE6087C003F0752FC26FC3C0712FFEDFF89
0102FECF0027004402E500730016061C00CF047EF993FE5F07360013FDE9
0087FEC2FFF9FD1304D10050FFF100D500A800CAFA2DFCE905BE001EFEAC
FE41FFDFFFE3FDC1FFC50027FFD9014800B20023FA80FEBA0674FFDD01D0
FC89007AFFEFFE72FD79000EFFED00ED00AC01B2FA230044046F000B00DC
FF2EFF4AFFEBFE6EFF5800390020FD300062FFA5FC4AFFD90049000DFEAE
00E3FE230011FE94FCA00021000C009D0001FEC8FE96FFCF00FE0003FCA2
FD9EFD170009FCBEF9BD0032FFD704E0FFF801B8FF99FF410409FFFBFEBB
FB6EFBA20009FAADFCB10039001C06ED003D03EC0072FD1101A20003FF53
FBF7F9A00027FB57F95E0054FFDD08F6002001CA00C2000505EA0021038C
F6BEFB5BFFEDF83EF78D005D000A098FFFEA073D0343FCB001E3FFDA03F1
F5DCF5C5000AF622FB0200A4002009EB004B07F9FCEFFAB302FDFFFA01C7
F9A1FE91FFF7F864FA67001EFFE3035400970472FB59FCA301C30006FC63
FB7506400013F625F987FF64FFD9FE4E00C4010DF562FF1407C50009FBCA
FC75FF1FFFF4FAE1FEFBFF9D0028FEF4001500B6FACE006403F3FFFFFE2A
F8F1FC27001AFCD2FFF6FFF7001204C6FFFE0463FE09FB260038FFE4FC9E
FE3C000BFFED003802E50079FFF105E90040047CF9CEFC1B040D001AFDB6
FF4EFFF4000FFD99002800890020072400E00810FC07FD82044D0018FDF7
FB6701A4FFE8FC7C03C60030FFF0016B00D2044DFAD9FE5F03D8002601A3
FCF001F50015FD3D008D001CFFF7FF9D010100B4F901FF67061AFFE601B1
FE7B00FD0001FDB40026002FFFE3FDDE007EFF86F9E5FF8A0308FFD8FFD8
008DFF93FFEAFE29006AFFF5FFE5FBBB004FFDD2FCDDFF60FFA6001EFE81
00D900340013FDF9FDD3000DFFEFFF3E005DFF0DFDC0FFFE0048FFDDFC1F
00090048FFE0FE08FB4C002D001A038E002201FDFF6B005A028F0017FC33
00A1007F0011FBD6FD2400810011052D000A0336FFC6FEF8FFD1001FFA6E
FF5CFD780015FA93F9F90080000D0594003E02BBFEAC014002B6001FFC9B
FF50FC300003FB85FE8700BFFFFE058F003B085200CD0065FF10FFEEF9DD
FE61FA4A0002F982034600D50024071B008C0467F95FFD1E00F10026FC6A
FF4FF8F30015FC3CFFA0001D0017046D01080288F7E1FC7505E4FFE7FEB0
F8D900EB0005FBF7FCEAFF48FFEAFFB4013B07EDF80A006F05B9FFDBFDF7
F68CFB5AFFDDF7EAFF68FF8FFFFF01A0002E04D5FA0CFB32006B0003FB6F
F847FDB6FFDDF85804F2FFF2FFE90414001701B8F7B7F71202FAFFE4FFA4
FD8B03250025FCC80481008E00090211006F04C0FB9DFBC9021CFFEA003E
FFE303C0FFFFFC9000F700410014022100E70784FE2BFECC00C0000FFDDC
FAB8062F000DF9BC00F5004EFFDEFEE701350062F8A1FF930451FFE70127
FE28038DFFF4FB14FF7B0040000BFD7100ECFE14F799FF720662FFDB006D
005000E4FFF4FDB000E800250018FCBB0064FDF3FB1CFF5D018AFFE8FF3B
011DFFB5000FFE31008B002A0014FBDA0061FD31FD7BFF24FEF00002FE03
00ED000BFFF0FDDEFF1D0017FFF4FD7B001DFE05FD7EFF9AFFC20023FD24
02010228FFDFFEF4FE8F0026001AFFB700710015FD0500BE00E60000FCAC
02090392FFF2FD44FF1400640005010F007501E5FB6B00A601D2000DFC47
00A003A0FFE0FA6DFD550075FFFF017800C201B6F57C031E0736001EFCC1
0340FC890026FC3902A4009F001A0787011B03CBF1C8021E0E630018FBEA
FFA4F97F001CFD80062500A1FFD70C2400FE0840FA64FEBD05A2001DFBCD
FABEFB61000BFBD90243FFFD001D061200E3087AFDD2FE48009A0002FC41
F874FFEDFFDCFF5200CFFFBB0015016300A80747FCB5FF0D007E00080031
FCE9F4A1FFFAFBD000EAFFF1FFE9098CFFE80390F907FAF7085CFFE301B7
FBC702A70020F803010A0072FFE10152001D0548FC38FF96047AFFDA0138
F8A109610009F5CDFA02006E0023FE04009908B3FAB900BF0313000DFEBA
F8FA0AEBFFF7F4A8F5980062FFDF012500FF0502F7C1020906B30002FF96
FA540843FFF5F7B9FBD2001D0018FEE600FBFFBDF64E013F05E3000E00F3
FD9C02B2FFE5FAE3FF2F0037FFDEFCB000AAFEE1F876FFBE035AFFEBFF60
FF8A0024FFD7FC830039003C0004FC5E0080FE4BFB81FF2100570028FE4A
0046FF8D0003FD30003B0004FFF2FC0A004CFD2AFD3BFEF3FF13FFE5FDA6
005DFF77000DFD13FF89001AFFE6FC75005FFD9EFCF4FF39FF740027FD5A
FFE60073FFE7FC6EFFDA002BFFDBFDAA002BFEE2FB6BFF94000AFFEAFD44
01A901150007FDA1013A00340010FDD00085FDAEFB67003F00B1FFE8FE16
048C021CFFF8FF2200F8002E0018FD740099FDFEF87001BA04950019FD00
05A3006BFFE0008BFF32003D001400A500BCFFB0F63F02CC08E3FFF5FB67
0353FC59000200B8FEDA0051FFE3038E00BD0283FC2C00EC05E1FFFFFBBA
FFB8F5D1001AFDF60065FFF3000BFF6B007C04BAFC07FD8E03CBFFF1FA40
FE2DF66C0008FE670158FFFEFFF6FED000580343FA68FC8D02F0000BFE32
FDEFF9C4FFF7FCD0FFB20007FFF100F9000D043AFC6FFEEC0231FFEB001E
FDB5FFA2FFD8FB4003290029000DFAD9FFCA0387FF26007CFD2DFFDFFDFA
FD5601DBFFECFB59FEE70070FFEBFC58001DFF16FC6D005BFFA20004FF33
FCB903230008F939FB8C0031FFF0FEE1007EFDADFA07008802F60008FF09
FDE70385000FFB1FFE3D001A0007FDF20059FE01FA5400630218FFF6FEFC
FF4B01F9FFF1FC63FFEF0005FFF1FBE0006EFD7BFBA7FFB7FFC90015FE31
FFA40098FFE7FC72FFEC0017FFDCFC1F0048FD2EFC93FF3CFF550012FDAA
0039FFDB0016FD1FFFE90021FFF4FC0B0021FD20FD1BFF19FEE9FFFAFD4B
