F977DA1A265C264408AA051225E91F81263425E725E8ED21F2DDFDF4265A
E010E081F061FEE1131BF75B1F821FF41FCE1F801AC51FADEC3EE07D1FF4
E00CE082F229FFAF1FDAE0000D3F1FF91FD3E5071F82164FEB17E07C1FF9
E009E086F0E41FDC0C57E0001EFE1FFE1FDAE0D91F8505D2E025F84F1FFE
E009087AE9261FD71FD8E0001F8820001FDEE3B21F88FE51EF40E0772000
E0091266F13F1BA5F9EFE00016FE20001FDFE01C0B68E479FDA5061C2000
E00A1FF4E06AE02DE0521BE21F8210BA1FDCE017E000E02AF4EF04230B24
E00B1FFA1EADE02FE0271FBFE000E0511FD4E00EE000E0241FD82000EA6D
E00C20002000F991EDC5FA75E000E309E007E004E000E01B1FDB2000E04F
E00F2000200013D2E022ED70E000E04AE000E004E000E0181FDD2000E04A
1DAD1FFF1AE8E028E021E001E000EFCBE001E00EE000E01D1FDE2000E04B
1FABE076E0F9F030E3A2E0001F8DF723E0131F961F92F6071FD7E3D51FEE
1E6DE05EE05CE02FE02AE0001FA3F8481F3E1FAF1FAA1FC51DB7E05C1CEA
1FAFE065E05CE02DFA8EE0001F9F0A3D1FCD1FA51FA418961EA9E0601FEF
F802E074E061F81DE02811E91F91E8A91FCA1F901F911FB0F379E06EEF3B
FD32E077E062E02DF92DF57F1F8D064B1D1A1F8B1F8C1FAF07B8E072E046
E429E07CF001E02E1F3A17281F881EC21FCA1F861F87F4DF0AF2E077F8A0
E00CE3141FFA1FDB1FD9E0001BD41FF81FD20C0510981165E027090D1FF8
E0071FF51105EFE41947E000054B20001FE2E01B1F80E029ECB4FF952000
E0031FF62000E02DEE3BE0001F8420001FF3E0190400E028E59FFC672000
E0001FF418DAE02B11C2E0001F8E20001FFDE01A1F8DE0280F7FEF432000
E0001FF82000E5FD1F41E000EC4E20002000E013E000E02504811FFB2000
E0001FFDE069E026E025E000E00020002000E008E000E01C1FDB20002000
E00020002000E025E021E000E00020001FF9E000E000E00B1FDE20002000
E0002000200014A5E020E000E0002000E020E000E000E0011FDF20002000
E00020002000E01CE015E000E0002000E000E000E000E0051FEA20002000
E0042000E05CE00EE008E000E000F5A8E000E008E000E0051FF72000FD09
1FB4E06CE03EE021E01CE0001FB0E04BE00405341FB4E0201FE4E04FE04B
1FBBE048E03AE02CE027E0001FC7E049FEA41FC61FCFEB071FD8E038E049
1FB8E04BE042E02BE026E7BF1FBFF10D1FD11FC41FC800C11FD9E040F69B
1FBBE068E054E02BE0261E641F9DE040EA211F9E1F9F02181FD9E061E03F
1FBEE070E058E02CE20F1FC21F94E039E00B1F921F9306EC1FD9E06BE039
1FAFE07AE0650B42E0281FB91F89E047F5AF1F871F881FAEE778E076F207
E00C1FF41FFAFCD81FD9E0001F801FF71FD2E01D03AA0A32EE08E2AE1FF7
E0081FF5200007D71FDEE0000B1F20001FDEE018E000E029E0FC20002000
E0071FF51FF81FD904BDE000E2D220001FE8E016E0F0E029FC4B20002000
E0051FF40E611FE31FE6EC8DFFA320001FF2E015E000E029E01A072A2000
E0011FF902A61FDD16FEFFFEE00020001FFBE00CE000E024EE4020002000
E7FF1FFCE03BE023E01F1FD1E531E042E029E008E000E01A1FE0E566E042
11BF1FFD20000D9FE025E000E0001FE6E000E011E000E0201FDA20001FE2
E1C91FF6200020001FEFE000E0002000E0000C03E000F15DE01120002000
11731FF40FCAFB0FECD3E000FCF6183AE015EAF70E76E0261B470557186B
E0042000E057E012E00DE000E000F250E030E007E000E00B1FF22000F15E
E0012000E045E017E013E00AE231FC2D1FF1E008E000E00F1FECFF9E1A2B
E0001FFB07EAE02FE233E000E00020001FF6E010E000E0241EB520002000
E0050F69E067E02DE029E0001F9320001FE8E0A01F93E0291FD7E06C2000
1FB2E079E060E27FE026F46B1F8CE044E0121F891F8B0508176CE073E044
1FBBE078E0610883076D1FC11F89E03CE0091EDD1F881FAF1FD8E076E03C
09FBE07DE068E9E41FD4F4D91F85FDC1EF811F851F841FAF0A78E07AE046
E8A6F31C1FF910A51FDEE78618411FF41FCF05EFF8E71F76E022F4861FF4
1A0C1FF408961FE21FE0F841F0A50A4DEB93E018E73FE02AE02119FC0A81
1FAD18DDE05F1FE51FE41FCFE0F8E03FE01EE016E000184FE01CFEAAE03F
1FBD1FF4E04C1FF11FF11FEC1575E02CE013E012E0001F90E00FE06DE02B
1FD61FF8E03DE07EE04F2000E000E011E000E00BE000E0251FD2E138E011
2000E058E016E023E01C20001FADE000E000138807C1E0241FE3E052E000
1FE5E06A1FFC1453E027E005E000E01FE0001FACFC1B08E21FD82000E01F
E014E06B20001FF61FEFE0001F891FF91FC51FAA1F941FC2E0121A251FF9
E0051FF720001FEA1FE4E000E00020001FE2E7B7E000E027E01D20002000
E00020001FFEE014E00FE000E00020001FFCE000E000E0041FF020002000
E0002000E06AE019E015E752E00020001FFBE000E000E0091FEA20002000
E0002000200005F9F3FAE000E00020001FFBE009E000E01F0E3020002000
E0051FF8200001B8E035E000E00020001FE2E015E000E0271FD720002000
1FAF1FF41E710525E027E07BE000E5A5E00FFE2CE000E0291FD82000E045
1FB404AAE06AF8BFE0271FBA1902E9C6E00E06AE1F7F194EECD7FCD1E042
EE75F715E0A0F8931FD6ECD71F821887EDDC0BB51F811FADFCA6F6E5FC33
171DE0821FEC00A31FDA089E1B4719F61E7FE6FAF8D5F0D9F80D166CF629
1FB31FF3F74BFD53F2911FC5E000E03FE014E01AE00014C51F54F402E03F
1FBCE079E04FE02EE4471FDA1F92E030E014E018FDC5E94B1FD6E06CE030
1FD4E063E023E02EE02A20001FB5E011E00DE0121FA20B251FD5E04AE011
2000E03EE012E02AE02520001FCDE000E0001D321FB91FD61FDAE031E000
2000E027E00DE023E01D20001FDAE000E0001FC21FC802AC1FE2E024E000
1FEDE057E047E02CE0261FDE1F9DE00FE0001FB01F9F1FC51FD9E062E00F
E019E065E061F20B1FDCE0001F9C1FEC1FCB1FA11F9C1FBBE024E0631FEC
E0041FF92000E022E01EE000FA1320001FEEE010E000E01E1FE109292000
E0002000E06CE00BE008E000E00020001FFFE000E000E0001FF720002000
E0002000E06CE018E014E000E00020002000E000E000E0071FEB20002000
E0001FFF2000F42DE029E000E00020001FFDE00DE000E01E1FD620002000
E0081FF82000E02DE027E000E0001FFBE02DE015E000E0261FD820001FFB
063B1FF617FD0EC0E027E000E000E04CE017E01BE000E0291FD820000AC1
18861FF4E0ACE02CF2B0F4C1E00017D70F5C0E9702FDE0291FD91EFC0760
E0120AA51D7C12EAFB13026B1F811FF11FCC1F801F80E221FF3CE07E0E35
1FABE29FE06AE02CE02717BDED4DE049E01A1CF31F54E02A1FD8E07D0705
1FB81FF3FDD6E02DE0271FC3EAB7E03BE00C157CE000E02B05CFEF5EE03B
1FC6E06CE048E02DE0291FDD1F9CE029E00F1F861F941C0D1FD6E063E029
1FE8E03AE016E02CE02920001FDDE000E00D1F9E1FCA1FD61FD7E021E000
2000E000E008E024E02120002000E000E0001FD520001FEF1FDEE000E000
2000E000E000E020E01B20002000E000E0001FD81FFF1F971FE4E000E000
2000E04BE010E028E02420001FC2E000E0001F951FB01FBD1FDBE03DE000
E022E075E036E027E0241FE01FADE63F1FCCE0191F96EBE41FDBE052E729
E0091FFBE044E01AE0181FC31F891FEC1FEBE007E000E0171FE8E0761FEC
E0002000E049E00AE007E0F1E00020001FFAE000E000E0001FF81F472000
E0002000E055E01AE016E0001F8D20001FFFE006E000E0101FE9E0722000
E0001FFB2000E029E023E000E00020001FF9E017E000E0211FDC20002000
1FA21FF6177AE02AE024E000E000F256E021F721E000E0271FDB2000F05F
0B4E1FF51433E02AE024E004E000E047E016F1BAE000E0271FDB2000E047
1FA91FF501DEE02AE025E003F8B902C0E01AECE1E000E0281FDAF47802FA
0A5DE9D5E434098A1268E000E8031FEF1FCB194EF20403FBE5F60AD81FEF
0079E713E06BE02DE027112CE000FE81F60D18E21664F8391FD8E1BDFEA5
1FBBE50309BA1055ECA21FC1E000E03AE0091F85E00013691FD8FF3FE03A
1FD8E057E03FE02CE0271FE21FA9E01CE0011FA41FA51FCA1FD8E055E01C
2000E008E013E029E02520001FFEE000E0001FE21FF51FF51FDAE001E000
2000E000E008E021E01E20002000E000E0002000200020001FE1E000E000
2000E000E001E01CE01A20002000E000E0001FE0200006941FE5E000E000
1FDFE062E00DE029E02720001FD1E0001FBDE00E1FA8E02A1FD8E02EE000
E0181FB8E01DE02B0F0120001FB2E02E1FE0E0051F7EE027F442E04DE02E
E0042000E02BE01EE01D1FEB1F981FE71FF8E000E000E0151FE2E0671FE7
E0002000E033E016E0141FD41F951FEE1FFDE000E000E00C1FEBE06A1FEE
E0001FFBE057E022E020E0001FA220002000E0151F95E01D1FE0E05C2000
E000E9F4E0C3E026E022E0001F9520001FF71F9A1F97E0261FDDE0692000
1611E784E067E029E024E38DE060FEB3E0251F91FA38E0531FDB147AE2F6
1FA81FF4E533E02BE026E000E000E04DE01D1F82E000E02A1FD91546E04D
E6BF152C028E12A6F5C2E000E0001EF5E01C184EE000E02AFD662000F24A
14D3EEE8030114E61FD4F32D054B137DFE341EED099B07E80FE7F70D1FF0
FE09E8CB11FDE02DE02807880C980432E01A1F81E000E02B01F81513E04A
1FB9E54FE20EE02CE0271FBDE000E03DE00B1F89E0000B871FD82000E03C
1FD8E051E044E02CE0271FD91FAAE021E0011FB31FA81FCE1FD8E055E021
2000E00FE019E02BE0271FFE1FECE000E0001FED1FE71FFB1FD8E013E000
2000E000E014E026E02220001FFDE000E0001FFC20001FF51FDDE002E000
2000E02EE013E024E02120001FF8E000E43615771FDBE0281FDEE007E000
E026E078E015E02EF44F20001FCAE00B1FD7E0041F9BE0280DE0E035E00B
E007E08BE015F681200020001FCB1FD71FF9E0001F941F99E000E033149D
E0032000E035E02AEC271FF71F9FFBA21FFAE000ED96E01FF397E05FFBC9
E0002000E05AE024E02011971F8D20001FFFE005E000E01A1FDFE0722000
E0001FFDE074E024E020E0001F9120002000E01A1F89E01F1FDFE06D2000
E0000339E06CE026E021E0001F9020001FFD1F911F8CE0261FDEE06E2000
0F5DE075E063E029E024EDA20983FCF6E02B1F990509E02C1FDBF0F3FCF1
1FA91FF31FFAE02DE027E000E0000DF5E01E1F89E000E02B188B19BC0D7A
F9931FF420001B6AE028E000E0000073E01D11D4E000E02AF8F920001FF0
17F31FF41FF9F93DE26CE000E000026EE01C1F80E000029205A62000FDD1
FB8FE0810CFA0776FC73076114A9092FE01B1F831EAAE02BFBFE0C8108EE
1FAC1FF2E069E02CE026E001E000E048E01C1F88E000E02B1FD9FBDDE048
1FB3E069E055E02CE0271FBE1F9BE041E0261F9C1F981FB81FD8E064E041
1FC0E053E049E02FE02A1FCD1FABE035E0251FB21FA91FD01FD5E053E035
1FBDE058E048E031E02D1FD71FAAE0331FD41FA41FA51FD0F5F0E055E033
E015E075E03CE031041E1FED1FA7E0351FDDE0111F931FACFC8BE058E034
E00EE080E02DEF871FE61FF21FB319471FE6E00A1F95EC4AE01AE04C049C
E004E07AE03F1FFA20001FCA1FBA1FFA1FFCE00C1FA01FABE000E0451FFA
E004E92EE05E05A81FEF1FBF1F8D20001FEFE00A1F7909B9E011E0722000
E0001FFBE05DE025E021E0001F9520001FF7E0161F87E0211FDFE06A2000
E0001FF9E7C1E024E020E0001F8420001FFF0DAFECE7E0231FE0EEFC2000
E0030CD5E584E028E023E000F25920001FED1F95E000E02A1FDCEB1A2000
027C1FF32000E02CE027E000E0001465E1A71F87E000E02C1FD820000AB2
0D241FF32000E02DE028E000E00009E6E0261F83E000E02B1FD720001FF3
E00F1FF420000A42EF60E000E0001FF3E0200ACBE000E02A05B5200004FB
1695F2D11FF91F7AE029F17800F2011513B0FB93E000E02BF71520001F35
F72E00C6FAD8E02EFF31E000E9DBE115E01B1F84F8C3F1C51FD700830ECA
F152F4E7E1C3E02DE027E000E000E137E2901F88E000E02B1FD8EC87E11C
E00AF81BE25FE02EE029E000F78DF42410611F86ED2FEEBE198EEF91ED2B
E0091D030519035407FD18EEE00013961FE11E84E0001EFDF5DCF60F0D7B
E009E0751FF5200020001FC21F881ECD1FE7015C11571FCFE000E3391ADF
E00FE06EE05B200020001FDA1F9AF3C51FE6E0161F911FD3E000E065F121
E00BE060E03C200020001FD11FC01FEF1FF4E0161FB01FC7E000E03F1FEF
E009E047E052200020001FB71FC720001FF51F9C1FC51FF1E000E0382000
E832E070E059200020001FBE1F9F1FF81FE01F7C1F9B1FBBE000E0601FF8
E007E076E04EE02AE0251FB51FA2EA931FE6E0831F99E0261FDAE05D022E
F8391FF4E065E028E023E000F412011AE1571F91E000E0291FDCEA3FE04E
1FBCE0720B09E02EE0290D63E000E039E0131FA1E0000D051FD6143AE039
1FAC1FF02000EFBAE5C8F7B7E000E047E01E1F88E000E0311A6B2000E047
1E7008FCE8C8E681E029F236E000E04FE2A91F84E000E02D1FD62000F6E4
E27B1FF4E693FBA7E82BEE29E000EC26E01F07C7E000E02B0B022000E4FD
E3931FF41FF91FD0E7DFF7E9067DFCFE1255FC81E00004E4E6972000F88B
1FADE07FE06BE02EE028E0011F830F1A08551F851F821895EAF8E07C0E98
1FAAE07D09F2E02FE54EE000E000E04CE01E1F880959098D06D410EFE04B
159A1B1C1FFB1FE71FE11C13E000E04EE02A0F51E0001FB2E01F2000E04E
EE3B1FF420001FFE1FF80947E00011B208F6E016E0001FA5E00820000CFB
1FA71FF02000200020001FD2E000E04EFB45E017E0001FE2E0002000E04E
1FBDE06A2000200020001FEFE000E03BFDA2E019E7661FFDE0002000E03B
E014E05E2000200020001FD01F941FEF1FDC1F831F961FFFE000E06B1FEF
E00AE048200020002000FCB21FAC20001FF11FA81FB82000E000E0532000
F4BAE060E052200020001FBF1FA9F9DA1FD91F921FA91FC9E000E0560FCF
1FCFE06BE04FE02EE0271FE01F94E024E005FF961F8E106A1FD8E06BE024
1FDEF34DE05CE02FE0291FE3E000E017E0001F96E0001AED1FD61ADFE017
1FD8E06C1B3AE6E0E02D1FDCE000E01EE0001FA0E0001FC41FD22000E01E
1FB9FD77F53DE30FE02E1FCBE000E039E0151F89E000060B1FD12000E039
18551764EBAFE02FE02AF3FEEAEAE04AE9E31F82E060E5771FD5E07AE04A
E1DE1FF30E07EB8CE029E0100A39E313E0201995E000E9D4FFC3E6AAE04C
076C179AEC581687E548FE6DE2811FEAF94B1F8011CEE02B13E50E4D18D4
017AE07EE06C1FDAF9C0183BF4F6080A04F117CA16F6F984E02BE07C0E5D
1FB00F4E049C1FE41FDEE34FE54CE83EE0131F8412691FB3F98D1AB6E24B
1FB21FF31FF71FEE1FE8156AE000E040E015E019E0001FB2EA2B2000E040
1B371FF5200020001FFEFEC5E000E04DE023E014E0000E6AE0022000E04D
1FBA1FF22000200020001FE1E000E041E009E014E0001FEFE0002000E040
1FDC00B82000200020002000E000E026E000E018E0002000E0002000E026
1FB0E0692000200020001FCEE0001FEA1FC21F831F7E2000E00020001FEA
E005E06C200020002000E0001F8820001FF01F921F971FE9E000F7732000
E00AE07CE06A0AC31FE4E0001F8D20001FD61F831F901FA8E01CE0722000
1FD8140CE05BE02AE0241FDDE000E01DE000E021E000E0281FDBFF6CE01D
1FE60C79061E1FD0E02E1FF2E000E00EE000125CE0001FC11FD12000E00E
1FD3E9521D6B1FE309F01FE8E000E020E0001F8CE0001FCC043D2000E020
1FB71FF01FF6ED85073F1FCFE000E039E013FE1AE000E8211DBF2000E039
E8A11FF32000FFA3F63B077FE000E04CE020E01CE000F566E0242000E04C
E064013218891FE31FDEE0FCE54D1C3715E7E01DEE67146BE02217461C33
E01307CFEF9C1FDA1FD607BB1F811FEF1FCB1F811F801FADE02A091F1FEF
FD30E07FF3BB0E96184814C5F7E51A5F09081F831F81091AE026F123EA8B
1FB0F9B00BAD1FE81FE21D9605CEE047E0111F311F821FB3E01E2000E047
1FBBE079E05C0D341FDA1FCDECFEE038E00CF4ADFF751FB2E026FC25E038
1FAF1FF31FFC1FF31FEB1FCCE000E040E014E016E0001301E0152000E040
1FDC1FEF2000200020001FFAE000E020E000E017E0001FF2E0002000E020
2000E99E2000200020002000E000E007E0000135E0002000E0002000E007
1FC4E0732000200020001FD0E0001EACE0001F82E0002000E0002000078C
E007E080200020002000E000E00020001FDB1F851F751FEFE00020002000
1FC1E07A200020002000E000E0001D58E0001F931EBC1FC9E00020001D0D
1FDF1C5B1FFE1FEE1FDD1FD8E000E021E0001F97E0001FD2F3E82000E021
1FCD1FF0152E1FED1FE51FF1E000E022E004E01CE0001FC3E7012000E022
1FB7F82F0C841FFA1FFB1FE7E1EEE034F568E019E0001FC6E00509DEE034
FDF91FF420001FF91FF41FC6E000E2B3EAFAE017E000E02FE00C2000EDCD
E00F1FF520001FF21FEBE3D8E0001FF31A9FE018E000E02CE01520001C43
EF041FF41FFE1FE81FE301B5E86F102AFA87E5E9015FF0D9E01E20001342
0747014E1FF11FDD1FD9E0011F821FF01FCC1F811F81F703F021E07D10A7
ED8CE07F1FF51FDF1FDA103C1F82F9251A4305C31F821FAFE026042F1FEF
1FB4E07D1FF71FE11FDCE4951F79F27DE00CFAB51F831FB1E024F21CFD83
1FC3E070E058E887137F1FC91F92E034E000FB9D1F921FB2EEBCE06CE034
1FB81FEF0FDF1FE21FDE1FCAE525E03BE00AE01DE5530596E0220B46E03B
1FFA1FEA1FF2200020002000E000E000E000E01CE0001FD7E0002000E000
20001FEB2000200020002000E000E000E000E01CE0002000E0002000E000
1FF21FF02000200020001FF0E000E01EE000F2CBE0002000E0002000E01E
1841EA06200020002000E000E0001FF3E0001C61E0001FFCE00020001FF3
1FC01CC6200020002000FEFAE000EE30E00012C8E0001FD5E00020001844
1FC51FF02000200020001FE9E000E032E005E018E0001FDFE0002000E031
1FB9EFA4173D200020001FFCE909E0311EF1E013E0001FE5E0000327E031
E016ED6E1F7B200020001FDF08A2EA2B1FD7E01618DC1FD4E000F26BF0B5
E00C1FF4200020002000F7F6E0001FF51FD3E017E0001FBAE00020001FF5
E00F1FF5200020001FFCE000E0001FF5081EE019E0001FAFE00420001FF5
E013E8891FFF1FEA1FE4E003E0001FF11FAA0FAA0EDB1FAEE01C20001FF0
E013E0811FF506C31FDAE0001F8114C212451F811F801739EA51E07E1444
E015E07F1FF40549141AE0001F8309CF07191F831F821FAFEC67E07C0E31
FD0EEE271FF51FD91FD40E321F82FBBDE011F6521F811FADF59813A61CA7
1FBDE07A1FF71A101ED807C10F16E03DE0000D4A1F8505B1FAD51E51FF4A
1E28FBD720001F571E96E000E000EF79E000E024FFB9E02DE60220000603
1FDF1FEF1FFAF7F1E02B1FE9E000E010E000E01BE000E02D1FD52000E010
20001FEE1FDC1FF81E2A2000E000E000E000E017E000F49B02932000E000
20001FEF2000200020002000E000E000E000E014E0001FB3E0002000E000
1FBE1FF72000200020001FE1E000E030E000E00DE0001F9FE0002000E030
14241FF92000200020001FD7E000E03EE003E00BE000FBD4E0002000E03E
E4941FF515F5200020001FE4E000E0421FD7E00FE0001FC1E00014B0E042
E016E07418B1200020001FE11C55F4D01FD6E0151E4F1FDFE000E2F2E044
E010E0762000200020001FC8EFBE1FF31FD7FA5B1F811FD9E0001BD41FF3
E00EE082200020002000FFC0E0001FF71FD3F137F1C51FC2E00020001FF7
EB2EE72420001FFF1FFAE000E0001FF51EC00E6CE5161FB5E00620001FF5
026DE0831FFF1FEB1FE6FF53E0001FF30CD90F58FE2D164BE01A20001FF3
FDFDFD161FF61FE01FDC02F21F811FF31D391F811F801FAEE024E07E1F4C
E013F7141FF51FDE0FAEE0001F831AC01FCC01A21F82F7F8E026F8AF1FF2
13DFF37D1AF9F7E11FD50CF404C21FEF1FC91F821F821FADF9D4E07C1FEE
0AAE0197037C1FD71FD2E0001F811FF01E17E8DD1A251C47F91C1A361B05
06771FF31FFD18C7F24BE000E0001405FDCDF2C90311F5FE191B20001CD7
1C8418441FFAE02DF7CC0B0AE000E03DE001E01FE000E02B1FD72000E03D
1FD11FF0E05BFE14E02A1FDEE000E01FE000E01BE000E02D1FD62000E01F
1FD61FEF0A2E1FD91FD01FE6E000E01AE000E01BE0001FA8E8E80FDAE01A
1FC2EA861A021FE71FE01FD6E000E02EE000E017E0001FA7E0201488E02E
059217A1F4F61FE11FDB1FC4E000E042FF46E015E000EBDCE0252000E042
E010FF85E06901971FE2F60D1F871FEF1FD2EAC51F83FA55E01EE0781FEF
E010E078EFBA1FEA1FEA1FB91F8A1FF31FD31F841F881FBAE016E0741FF3
E010E0780E4A1FED1FECE0031F891FF51FD31F871F881FBAE014E0761FF5
E010E07D1FF612101FE4F81D1F841FF41FCF1F831F841FB3E01CE07A1FF4
E0110079FA3709761FDEE000FC5A1FF41FCEF6AF1F81F7F0E022E07E1FF4
E011FFF91FF81FE01FDDE0001F811FF41FCD1F801F800306E501E07E1FF3
F58BE081ED48FF140F55FF841F821FF31FCDFCA51F81F3A0ECC1EEE01FF3
