005FFFDCFFF6FEA800130006FFECFDC80017FE44FECAFF7FFF53FFFAFEC2
0049000B0003FEC7FFDB00010002FDF80021FE64FED9FF95FF59FFF7FED2
0048007DFFEEFF09FF010005000DFE700010FE2BFF71FFDFFF28FFEBFF08
FFA40219FFEEFF38FCE6FFBEFFF1FFCD0010FDC600BC0027FEAC0014FF81
FF4B0280FFFAFFABFA3BFF93000500C5FFE4FDA201E6006EFECF00070027
FFDD0182FFF000FCF9F5FF85000500D6FFD7FDD00188009EFF7FFFFE00F5
00F5FFD6FFFC01ABFC05FFAFFFF20000FFF3FF23FF0500E00211FFEE00DA
0054FFBC000701E60000FFEEFFF7007F0018006EFED900720233000A0151
01F7002EFFFE035D03CB0013FFF30785002BFEB6018A000702D4FFED036E
0189FFD1FFEC00FA06AE001A000C07C9002BFEAE002AFF1E01CA000001EA
FF66FF690011FDC70254FFE9000802E80012FEA9FE35FE6E0024FFEEFFD4
FE6D0039FFF5FEC2FBD0FFA400070004FFE9FEB7003BFF7EFEF7FFF100A4
00DA02C5FFEB0181FAC0FFD9FFFAFF66FFA1FFAA01F70186FF58FFEF001C
02A401D0FFFD0168FD020000FFFEFEBFFFB7FF7E01FA0135FE13FFF2FE60
019600EF000E0048FEB2FFFEFFFFFF6CFFFAFF9C00DC0069FE7CFFF3FE94
0138000F0011FFA3FF8F0010FFF3FF25FFF9FFC20018FFB8FEABFFF2FDE2
00D2FFC1FFF0FF2FFFFC00080003FE300024FEDBFF58FFB0FF0CFFFFFE0D
001E003DFFEEFEF3FF0FFFF5FFF2FE90002CFE08FEF8FFDFFFC4FFF9FF17
FED50243000DFE7CFCEDFFEB000300590011FE21FF5C006DFFE300140067
FD890590000EFE5CFA8BFFA40013031AFFECFE75FFD101270177FFF00225
FECE06670010FFF7F865FF79FFEE03ACFF9DFDBD00AD01C00215FFEE01FA
012702A6000B035BF6F5FF73FFFB03A6FF7FFE7701A2023C037CFFF7028F
01500472000D0414F850FFABFFF802E1FFA1007C0012036C04B0FFF90100
017405BD000D03ADF9FFFFC2000206FCFFAFFF4E01B602D4047D000200B1
041604D4FFED04ABFB1BFFD200050992FFD6FCF2028301DC04800008FEEA
031801E9FFF20394FDAB000700010887FFE9FDD8021E00FD0337000FFFF8
01BA0131FFED023DFD9AFF9F000009C9FFAEFF63002301D90477000F0019
FF050325FFEB027EFD41FF70000D044BFF8801FF011B01F8FF1AFFFB0000
014A03E100130493FC96FFB9000F006BFF3400CF02DE02E9FE590000FF0D
046C0333001404B5FD4BFFCAFFF4FF3EFF44FF5A02B302DFFDCEFFEBFD20
02C70110000201EEFEC8000B000A005DFFBCFFDB017C011FFE8B000DFE74
0248002CFFF1007CFF2A0000FFFF0003FFDF006C00C50047FE9BFFF3FD43
012C0060FFF1FF83FFD6000BFFF3FE850003FF31FFA9FFDAFEB7FFECFDFC
FFCF00CE0010FEACFF270007FFEFFEB30009FE6FFEAB001200000008FF57
FE43026C0011FE65FDF6FFFFFFFA00D8001DFFB3FED400CB0138FFFC0137
FEC5041800030052FE6CFFFDFFED0375FFFE001CFF0C012801FDFFEE028A
0052043D00090209FD42000500050337FFBAFF5C0001019C00F9FFF400FA
003B030F00040246FC250024FFF30155FF83003501FF0233FF2FFFEEFFF2
015E07BB00080322FBEB004100030230FF77FF000285043901920000FF52
01FA03FA0013013DFB100027FFF70232FFCDFCD2FF0F026104E30006FDC5
FE49FF9CFFFD0063FA43FFD8FFF402ECFFE8FF93FF9900A504020001FF27
FFEE008BFFEE0110FBADFFDC00040149FFBB0007029D0195FF490003FF9C
0191FF4EFFEE0184FE4BFFC3FFF504D5FFA3FFD103FF0216FF50FFEC016D
0116030C00060293FF90FFE50010021FFF6B01E302520364FDA0FFF80120
FE9D0325FFED03FA0136001BFFF50232FF4A009901E303C1FF42FFEE02B4
004E017AFFEF03BF0059FFF9FFEE022FFF65FF5D02660243FF06FFFC00F1
0191FED4000F0157FFA3000CFFF50201FFB1FFF000B400A1003AFFFDFEC9
0195FEAE0011FFFAFE23FFF3FFFB01ECFFF2FFF900970042003FFFEEFD73
00CCFFDDFFF0FF36FF45FFFBFFFCFF82000EFF12FF780011FF5B000DFDFA
FF770084FFF4FEBCFF1E001CFFFBFF120030FF9AFF110004004EFFF1FF90
FE03010A0014FF2CFF8E002DFFFF01D900000288FF600040016F00030145
FFA301F70011017C00CB003FFFF50356FFD702B4FFEC00C9FFCA000F0085
FF4101240005023D010200420004026BFF6C02A7024501C5FD3B0011FE9A
0009FF25FFFE0152FFCC0055FFFD02EFFF2E02D3022500FFFFD6FFF6FE43
036B02BA000B02F7FD9C0079000D03D1FF5F030104E803000057FFF4FF57
FFFEFE65FFFFFE97FC6800550004007AFFC2021101D10072006CFFF4FB67
009FFDB50013007BFE18FFEE0008FEFDFFF7FF91013800F90211FFF5FE2E
006BFEA5000AFFCEFFCFFFF1FFFB00640027FA3CFFBC011D02080006048C
00DBFFB500050155001BFFC300130477FFD8FBA102EA01EDFFEDFFF507F4
026B00A5FFF0024402270018000F010EFF96FF64FF1A02F5016500050580
FD0101CF0009017DFFC00058000E04D2FF60010700650342030AFFEE0452
FF70FFCBFFF002FB00B7002BFFF903C3FF94FFFC048A0140FEE7FFFC03CF
012EFE06FFF100F7014F0003000F00E7FFF6FF87011AFFC50065000500AF
00D7FDDD000EFFBCFEC8FFFE000700C30001FF1C008AFFBF0106FFFBFF98
006DFF020003FEF8FF4A000FFFF8FF57001EFEA3FF58FFCF0014000AFECE
FF3D002F0002FEDBFF270004FFF6FF5C002400C2FF94FFE0FFE5FFF2FF0E
FE72FFEA0008FFE3FFE40022FFEE01F0FFE303CE011E0026FF5D000DFF92
00800088000E01E1013E002D000B0126FF8F0052026C0061FCDE0002FFF0
FF63FFAA001202CB022100540006FF9BFF14011504AD0131FB4B0001FF89
001CFD60FFEE026F018D0049000E00D9FED002C504D8001DFDB400130020
02FEFE64FFED032203200087FFED02ACFF1A064209D300CFF86C0012FECC
0059FC37FFEE00DF066D0066FFF30008FF9C04BA05F0FF51F9130011FBF4
020E00350013017609E40010000BFA540026FD1BFFB00073FD8500080151
01670264000101540664FFF8FFF2FD3F0059F892FEDD021EFF6400090672
01D402BCFFFA02740240FFCEFFED017AFFFDFA53010702F2FFA5FFFF0927
006502F00004028A03B8003F000BFF33FFA7FBE6FFD00344005DFFFE093D
FF590009FFF00103FF600057FFED01A9FF77FD8F01A0029E01ECFFFB05A8
0174FDA7FFFB0368028D003D0003012DFFAAFE7A030000B2FF3000010425
0189FDF5FFF70174021400100013FF36FFE2FF32010BFF810079FFEB0167
011FFEB70007004D00160008FFF3FEF7FFFFFE6FFFF1FF8A0192001200CF
0086FF64FFF1FF58FFA1FFF6FFFEFE6CFFFBFE59FF41FFCB0042FFEDFF6D
FFBE009E0013FF33FEF300040001FFA3000300B8FF7E0050FFB40004FE70
FF5AFEDAFFED00A9FF8F0030FFED0172FFE3038B01B70019FE650008FF04
0127FEFAFFEF0242015D004EFFF6FF69FF6CFFF304450032FAA600090071
FFEBFF0CFFF202D602560049000FFDCDFF14005705AF007EFA66FFF80103
FE96FE98001401C00226005300110065FEAD03900782FF79F984FFFCFDFA
0234FEA7FFF602B104F20035FFED01B0FEE805990861005BF7DDFFFEFD5E
FF1701710007019D07FA00370008FDE2FFB0043D00D600F5FB1DFFF3FE14
FF970645000701560959FFE3000FFA330061FF30FC3F01D9FD97FFFDFF70
00330637FFFB01D5032BFFFAFFF9FEE2008DFCD9FF0B02E1FE17FFEC0101
04800388FFF703C80243FFED000600B20008FB9D00270226FFB6FFFE0455
006102AC000A02E40195003B0001FE96FF66FC2E03920384FCCCFFEE05DF
0186FF0DFFEE013E009E001A000BFE7FFF83FC5601DE0265000BFFF503B3
022AFE3CFFEC02B6044BFFFE000DFE34FFD5FD16FEE100C00163FFEC03FC
01EBFE11FFFC01F801C3FFEB0008FEB7FFDEFE4F00E3FFD70135FFED028D
0105FDB9FFF800A00042FFEFFFFCFEEEFFEFFEC80012FFB901E80003014B
00A8FF1AFFEEFF77FFE1000AFFF7FE74000DFE88FF72FFB80042FFEFFF98
00CB002BFFEFFFD1FEC0001FFFF0FFFBFFFE0020FF7500810094FFF6FE7D
0159FD6000000176FFD6002DFFEC0089FFCE025201F3FFFBFEB90012FECB
016DFD310012022C025700360010FFE7FF8901E303C2FFB0FB9E0006FF20
0036FEE70008016703DB004C000FFE49FF28030F0483FFE2F9B40013FDB2
FFCDFF4CFFF200AA044E0023FFF7FD97FF16020C03A2FF02FB52000AFC98
02DF012AFFFA0468038D0012FFFEFEB0FF2A0257029301B2FE3EFFF2FD61
FEAD03CD000702ED0424FFFCFFEDFE3EFFC20252FECA01CFFF780012FE5E
FE6C07ABFFEE025606B6FFB1FFF7FD4B007C01BAFE62034FFDF7000FFF39
00C106B9FFF3020703CDFFB3FFFCFC320095FDB7FD74020AFE80000C0080
01330550FFEE02D50412FFA90005FD1CFFD9FDCA00D00148FC89FFED0368
00E60268FFFE0225018FFF9AFFFDFBDEFF8BFBD8019202B8FD83FFFA0220
014400E90001005400F4FF870007FB7CFFBEFBF1002D01A4FF81FFF2002D
01AFFF18000E00EA0321FFD8FFEDFCECFFF3FE0BFE690003018CFFF4013F
022AFC26FFEC018C01CFFFD60011FE53FFD9FE3CFFA8FEF002CA00060203
019BFBEAFFF100E40007FFEA0012FE9FFFEEFED8FFC3FF230203001000E3
00F1FE8EFFF6FFCFFFE9FFF8FFFFFE490019FE8DFF8FFF9F00620008FFA2
01A2FF4EFFFC009DFF1FFFFF0003FF37FFE3FF2C0032006BFFF6FFF3FF0C
02FAFC23FFF7026000340027000AFFB4FFC001210293FFF9FF71000DFF4E
0267FC55001401BE032000260006000EFF8E02210393FF50FD080005FD2B
0175FDB4FFFA005304B8003A0007FDC6FF6703070316FF10FA800010FA79
02DBFC82001001BE039E0002FFFBFE92FF54014D0385FF4EFD5DFFFFFD21
004D00C30014039C014FFFBAFFF7FD1FFF8400AB01930113FF02FFFD029B
FDCD00CCFFF7019801E3FF5600070043FFD40193FFE1FFFCFF76FFF8FE80
FD2607EAFFF1006402DFFF2B0013FBCC0053010EFF150199FD18FFECFF5D
FFF0067A000E013B0258FF4AFFEFF9F4005CFEACFEEDFF40FD31FFF3004D
FF0605F3FFECFFFF00EFFF63FFF1FCE4FFDAFDB9016AFE4FFD2AFFFE0432
004602BAFFF000BBFD93FF3E0000FC47FFA8FAFF0197FF6B000500090271
015AFF9FFFF3017FFEA6FF400000FCEDFFB9FE1C01FFFFDAFE70FFF60066
01F7FE1FFFEC0145FFEEFF9E0000FDE5FFE0FF2A0027FF2C014C0009FFF1
021DFBE10005014800ACFFD0FFEDFF060001FE2EFF2EFE990361FFEE00D8
021DFC0BFFEC01370002FFF90000FEDDFFF8FE65FF62FF4D0269FFFC00D2
0103FE54FFF6FFEEFFE50008FFF3FE530016FE80FF82FF7600630004FF9B
01FEFE37000200FAFFA400190005FEC1FFE3FEF800A8FFFDFF98FFF3FF50
030BFC2100070283006D0013FFF1FEACFFBEFFDB02FFFF9DFFB0FFFB0094
0184FD40FFF001310329FFF2FFFDFD9EFFB400380354FEEEFD380006FF6D
0037FE2A0001003E0365FFF70010FC60FFA4006D02FBFEF5FC01FFF3FDE3
0162FD460008006C0181FFB6FFF6FE3CFF7C002102CCFE6FFEECFFF6FE7F
011FFFBCFFED016BFEEDFF800010FE89FF9500850254FE4CFDBD0001003A
FE820236FFFEFE17016AFF850007FEEFFFD800BBFEB6FE8CFFB30004FE42
FE020A70FFFAFF7204B3FF5A000DFC61002BFE76FD6501C30012000C018D
FFBF07A3FFEE007902A2FFA1FFF7FEE6002C0127FF67FF55FF3C000BFF2D
02DC0492000300390159FF9E0013FF4DFFF9FE24008AFE24009E000F0224
01820064FFEE00850028FF770005FD18FFF5FA4EFF3CFDDC026A000C01E8
0360FD6A0007034C005CFFB30000FDAE0003FDF7FF05FF6400D400110065
01CCFC7400000160FF48FFB6000BFE89FFFEFEF8FF8DFEE1014D0002FFB0
0104FCBD000E00820084FFD40008FF80FFFFFEEEFEABFE2F01FB0014FFCC
028DFCBCFFFF018600770003FFF4FF04FFF6FE26FEF2FF930244001000BC
013CFE25000EFFF8FFE700090001FE720015FEA2FF73FF86003CFFFAFF8C
01EAFE28FFFA00EDFFAC000BFFF0FE8CFFFAFEAC0078FFDAFFAFFFFDFF6A
02A4FC9DFFFF02370049000EFFF9FE45FFDFFE8F02B1FF70FFE2000500C3
FEEAFCEC0004001C0190FFEAFFFFFDA8FFD4FF3101F9FE20FF1B000E0152
FD08FF600007FF0CFF99FFD0FFFAFD9AFFDBFF150247FF27FE59000C016A
FD66FEEBFFF8FE24FDDAFFA6FFF8FE3CFFB4FF82022FFD5BFDAFFFF400A7
FFDBFB89FFEDFF98FD12FFCC0005FFB4FF6F025302CCFCADFCD000030020
FED201910008FCD8002CFFB5FFECFAE9FFAF003B00C0FF10FC4D0006FF68
FC5D0679000AFCEEFEE6FF73000FFE080001FDC3011B001FFCF9FFEC00D0
FE2C0512000FFD77FEFCFFC100050204FFDFFF360267FDDBFEAD00080096
02BB02540004014C0151FFE70005007EFFC4002400F1FE320150FFED0136
0385FCAF000C03B703FBFFFD0000FDDFFFDDFF52001FFEAA003A000D0102
0470FBD8FFF203C504BC0011FFF7FD590018FF13FEABFEFD00C40014FEFE
0252FAE8FFF9009E01EB000B0004FE5D001DFF6AFF1DFE0A0180000FFE86
FF85FDC0FFFBFF8601FB0005FFF3FEC500150070FECBFD760023FFF7FF05
00DCFDCFFFF900FA00E7000E0007FF220016FFC9FEB1FF4901250000004C
00F8FE25FFF8FFFD0038001FFFFAFE8B0003FED2FF3BFFAC003E000CFFA6
017FFDFE00050038FF2D000EFFEFFEF50006FED40024FFBBFFE8FFEDFF4B
010FFB99000D00F8FF8AFFFE000EFF70FFEBFF6A01C9FE88004F00010079
FC6EFBAB0001FE770097FFFF0013FF0BFFE9009D011CFD0DFFDDFFEE0125
FC3DFE4D0009FE29FECD00020010FD6E0000FEEE01B0FF46FE2900050295
FBE7FF3B0003FDDAFDC1000CFFF4FE76FFD500E10296FD23FC3EFFF9017D
FC0EFB860008FE1CFDE70021000AFE93FFB30456037FFCB9FAC5000C01CE
FA46015F0004FB740090FFE10007FAEBFFE801D60117FF62FB17000D017F
FBA8023EFFF1FBCBFDC2FF7C000CFC36001800CC0242FEAFFBC4FFF9FE9E
0180FF3C000EFE53FE7DFFF6FFEDFF6DFFB5004A04A6FE22FD4BFFEFFF05
027DFE8FFFF2029803A0002C0003FFFFFF8F01D201B8FE9BFF5FFFEC01BA
020BFBCDFFF6035304FF0015FFED00D700160260FD6EFDB102EC0006006E
0254FCAA0001026604F60022FFF8007500340107FDAAFE8601FB0001FDE4
024FFD320007001002C100110007FF4F0023FF91FEBCFDF901A5000BFE43
FFACFF7E0011FF3300B1000C0008FF280028FFD3FE93FE61014AFFEEFF95
FF26FFD7FFF10038FF6D0009000B008700130076FDE6001001C8FFEF008F
FFB4FF8CFFEDFF70FF7E0004000DFF6B0008FFE2FE62001200960004FFA0
00BDFE460004FF83FEDF0009FFFCFF810002FF28FF72FFBB0046FFF4FEC4
FEF7FC8D0003FEA4FE4CFFF8000F00DEFFE70073004FFE7401760008FFDC
FB5BFC6C0009FC68FF2400000008015600010184FFE0FD6E0101FFF300E2
FCF7FCDDFFF3FE1FFDF10032FFFF00A1FFF2FFC200DDFFE30128FFF2037A
FA3AFCA9000BFC5CFC8A0034000A022FFFFC02C70159FCC3FF8FFFF80361
F979F9DCFFEEFBC6FF35004CFFFA0104FFF40444006CFBD6FDA0FFFD02DC
FB60012EFFF0FBB0FE74FFFCFFF2FEF8003B01D9003EFFADFDED0003FF5C
FD8703F2FFF2FAFDFE22FFB60007FC330041FFB8FF870004FF240012FD85
FFCEFF98FFEFFD02FF5BFFE6FFF7FFDBFFDC006B0004FFEE0114FFF6FF78
006AFDD6FFED0215017C0005FFF10261FFC30248016BFF6800DE000D01C6
FFF0FDFB000602A10224001FFFF3043E001F03A9FE13FE1E0389FFF6FFC4
0081FF670013002201720039000B030E0067023FFCC9FF2F039B0009FEF4
0043FF61FFFCFE8902680028FFF8006A00540065FD16FE7402DF000FFF56
FF20FFEFFFF1FEE0FFE20013FFEC00A400590011FD40FF5D033AFFEE00E8
FE44003DFFF7FF39FEBC0007FFF60076005600D9FD11002202370005006E
FF97FFA5FFF5FF37FFAC001C0010FE980031FFD2FE25FFEC00240006FF57
0071FF110008FF4AFE5000100006004E0000FF64FF4BFFE7007F0001FE51
FECFFE8B0004FE5FFCDE0019FFEB0270FFFC00DCFFCCFFA00204FFFDFF5D
FDB7FDD10004FD56FE58001C000E0376001E01F60039FE8800D10001FFA9
FDFBFCD00013FDABFCAF002AFFEE047B001000E50061000202F5001001C6
FB5FFDADFFF6FC1FFBC6002E000504C7FFF5039E01A1FE5800F1FFED01F8
FAEEFAE20005FB11FD810052001004F5002503FCFE77FD59017EFFFD00E3
FCD0FF48FFFBFC32FD33000FFFF101AA004B0239FDACFE5100E10003FE31
FDBA03200009FB12FCC3FFB2FFECFF2700620086FAB1FF8A03E20004FDE5
FE3AFF8FFFFAFD70FF7DFFCE0014FF7A000A005BFD67003201F9FFFFFF15
FC78FE13000DFE69FFFBFFFB00090263FFFF0231FF04FD93001CFFF2FE4F
FF1E0005FFF6001C0172003CFFF802F40020023EFCE7FE0D0206000DFEDB
FFA7FFFA0007FECC001400440010039200700408FE03FEC10226000CFEFB
FDB300D2FFF4FE3E01E30018FFF800B500690226FD6CFF2F01EC001300D1
FE7800FA000AFE9E0046000EFFFBFFCE0080005AFC80FFB3030DFFF300D8
FF3D007E0000FEDA00130017FFF1FEEF003FFFC3FCF2FFC50184FFECFFEC
0046FFC9FFF5FF140035FFFAFFF2FDDD0027FEE9FE6EFFB0FFD3000FFF40
006C001A0009FEFCFEE90006FFF7FF9F002EFF86FEE0FFFF0024FFEEFE0F
00040024FFF0FF04FDA60016000D01C7001100FEFFB5002D0147000BFE19
0050003F0008FDEBFE920040000802960005019BFFE3FF7CFFE8000FFD37
FFAEFEBC000AFD49FCFC0040000602CA001F015DFF5600A0015B000FFE4D
FFA8FE180001FDC2FF43005FFFFF02C7001D042900660032FF88FFF7FCEE
FF30FD250001FCC101A3006A0012038D00460233FCAFFE8F00780013FE35
FFA7FC79000AFE1EFFD0000E000B023600840144FBF0FE3A02F2FFF3FF58
FC6C00750002FDFBFE75FFA4FFF5FFDA009D03F6FC05003702DCFFEDFEFB
FB46FDADFFEEFBF5FFB4FFC7FFFF00D00017026AFD06FD9900350001FDB7
FC23FEDBFFEEFC2C0279FFF9FFF4020A000B00DCFBDBFB89017DFFF2FFD2
FEC501920012FE64024000470004010800370260FDCEFDE4010EFFF5001F
FFF101E0FFFFFE48007B0020000A0110007303C2FF15FF6600600007FEEE
FD5C03170006FCDE007A0027FFEFFF73009A0031FC50FFC90228FFF30093
FF1401C6FFFAFD8AFFBD00200005FEB80076FF0AFBCCFFB90331FFED0036
00280072FFFAFED800740012000CFE5D0032FEF9FD8EFFAE00C5FFF4FF9D
008EFFDA0007FF1800450015000AFDED0030FE98FEBDFF92FF780001FF01
00760005FFF8FEEFFF8E000BFFFAFEBD000EFF02FEBFFFCDFFE10011FE92
01000114FFEFFF7AFF470013000DFFDB0038000AFE82005F00730000FE56
010401C9FFF9FEA2FF8A003200020087003A00F2FDB5005300E90006FE23
005001D0FFF0FD36FEAA003AFFFF00BC006100DBFABE018F039B000FFE60
01A0FE440013FE1C0152004F000D03C3008D01E5F8E4010F0731000CFDF5
FFD2FCBF000EFEC003120050FFEB0612007F0420FD32FF5E02D1000EFDE6
FD5FFDB00005FDEC0121FFFE000E03090071043DFEE9FF24004D0001FE20
FC3AFFF6FFEEFFA90067FFDD000A00B1005403A3FE5AFF86003F00040018
FE74FA50FFFDFDE80075FFF8FFF404C6FFF401C8FC83FD7B042EFFF100DB
FDE301530010FC0100850039FFF000A9000E02A4FE1CFFCB023DFFED009C
FC5004B00004FAE6FD0100370011FF02004C0459FD5C005F01890006FF5D
FC7D0575FFFBFA54FACC0031FFEF0092007F0281FBE0010403590001FFCB
FD2A0421FFFAFBDCFDE9000E000CFF73007DFFDEFB27009F02F100070079
FECE0159FFF2FD71FF97001BFFEFFE580055FF70FC3BFFDF01ADFFF5FFB0
FFC50012FFEBFE41001C001E0002FE2F0040FF25FDC0FF90002B0014FF25
0023FFC60001FE98001D0002FFF9FE050026FE95FE9DFF79FF89FFF2FED3
002EFFBB0006FE89FFC4000DFFF3FE3A002FFECFFE7AFF9CFFBA0013FEAD
FFF30039FFF3FE37FFED0015FFEDFED50015FF71FDB5FFCA0005FFF5FEA2
00D4008A0003FED0009D001A0008FEE80042FED7FDB3001F0058FFF4FF0B
0246010EFFFCFF91007C0017000CFEBA004CFEFFFC3800DD024A000CFE80
02D10035FFF00045FF99001E000A0052005EFFD8FB1F01660471FFFAFDB3
01A9FE2C0001005CFF6D0028FFF101C7005E0141FE16007602F0FFFFFDDD
FFDCFAE8000DFEFB0032FFF90005FFB5003E025DFE03FEC701E5FFF8FD20
FF16FB360004FF3300ACFFFFFFFBFF68002C01A1FD34FE4601780005FF19
FEF7FCE2FFFBFE68FFD90003FFF8007C0006021DFE37FF760118FFF5000F
FEDAFFD1FFECFDA0019400140006FD6CFFE501C3FF93003EFE96FFEFFEFD
FEAB00EDFFF6FDACFF730038FFF5FE2C000EFF8BFE36002DFFD10002FF99
FE5C01910004FC9CFDC60018FFF8FF70003FFED6FD030044017B0004FF84
FEF301C20007FD8FFF1E000D0003FEF9002CFF00FD2A0031010CFFFBFF7E
FFA500FCFFF8FE31FFF70002FFF8FDF00037FEBDFDD3FFDBFFE4000AFF18
FFD2004CFFF3FE39FFF6000BFFEEFE0F0024FE97FE49FF9EFFAA0009FED5
001CFFED000BFE8FFFF40010FFFAFE050010FE90FE8DFF8CFF74FFFDFEA5
