FF
FF
FF
FF
FF
FF
FF
FA
E2
AD
F0
FE
F8
FF
FF
FF
FF
FF
FF
FF
FF
FF
FF
F3
8C
63
EE
FB
FE
FE
FF
FF
FF
FF
FF
FF
FF
FF
FC
9D
35
51
C7
F8
FF
FF
FF
FF
FF
FF
FF
FF
FF
FF
E5
6A
A3
70
5A
C3
FD
FF
FF
FF
FF
FF
FF
FF
FF
FD
B7
78
EE
F0
A0
7F
ED
FD
FF
FF
FF
FF
FF
FF
FF
FC
9A
8E
FF
FF
CC
68
D3
FF
FF
FF
FF
FF
FF
FF
FF
F0
72
A3
FF
FF
D3
5C
D0
FF
FF
FF
FF
FF
FF
FF
FF
D1
5F
CB
FF
FF
C5
5A
D6
FF
FF
FF
FF
FF
FF
FF
FF
C5
65
D3
FF
FF
B9
61
E7
FF
FF
FF
FF
FF
FF
FF
FF
C1
74
D8
FF
FF
9B
77
F5
FF
FF
FF
FF
FF
FF
FF
FF
B7
70
E2
FF
FE
72
A9
FB
FF
FF
FF
FF
FF
FF
FF
FF
C1
68
D6
FD
D6
61
D8
FD
FF
FF
FF
FF
FF
FF
FF
FF
EF
75
A3
C8
65
83
F3
FE
FF
FF
FF
FF
FF
FF
FF
FF
FE
B0
44
4A
4E
E0
FE
FF
FF
FF
FF
FF
FF
FF
FF
FF
FF
ED
AB
B1
D6
FB
FF
FF
FF
FF
FF
FF
FF
FF
FF
FF
FF
F6
F5
F6
FE
FD
FF
FF
FF
FF
FF
FF
